{"0":"!","1":"\"","2":"#","3":"$","4":"%","5":"&","6":"'","7":"(","8":")","9":"*","10":"+","11":",","12":"-","13":".","14":"/","15":"0","16":"1","17":"2","18":"3","19":"4","20":"5","21":"6","22":"7","23":"8","24":"9","25":":","26":";","27":"<","28":"=","29":">","30":"?","31":"@","32":"A","33":"B","34":"C","35":"D","36":"E","37":"F","38":"G","39":"H","40":"I","41":"J","42":"K","43":"L","44":"M","45":"N","46":"O","47":"P","48":"Q","49":"R","50":"S","51":"T","52":"U","53":"V","54":"W","55":"X","56":"Y","57":"Z","58":"[","59":"\\","60":"]","61":"^","62":"_","63":"`","64":"a","65":"b","66":"c","67":"d","68":"e","69":"f","70":"g","71":"h","72":"i","73":"j","74":"k","75":"l","76":"m","77":"n","78":"o","79":"p","80":"q","81":"r","82":"s","83":"t","84":"u","85":"v","86":"w","87":"x","88":"y","89":"z","90":"{","91":"|","92":"}","93":"~","94":"¡","95":"¢","96":"£","97":"¤","98":"¥","99":"¦","100":"§","101":"¨","102":"©","103":"ª","104":"«","105":"¬","106":"®","107":"¯","108":"°","109":"±","110":"²","111":"³","112":"´","113":"µ","114":"¶","115":"·","116":"¸","117":"¹","118":"º","119":"»","120":"¼","121":"½","122":"¾","123":"¿","124":"À","125":"Á","126":"Â","127":"Ã","128":"Ä","129":"Å","130":"Æ","131":"Ç","132":"È","133":"É","134":"Ê","135":"Ë","136":"Ì","137":"Í","138":"Î","139":"Ï","140":"Ð","141":"Ñ","142":"Ò","143":"Ó","144":"Ô","145":"Õ","146":"Ö","147":"×","148":"Ø","149":"Ù","150":"Ú","151":"Û","152":"Ü","153":"Ý","154":"Þ","155":"ß","156":"à","157":"á","158":"â","159":"ã","160":"ä","161":"å","162":"æ","163":"ç","164":"è","165":"é","166":"ê","167":"ë","168":"ì","169":"í","170":"î","171":"ï","172":"ð","173":"ñ","174":"ò","175":"ó","176":"ô","177":"õ","178":"ö","179":"÷","180":"ø","181":"ù","182":"ú","183":"û","184":"ü","185":"ý","186":"þ","187":"ÿ","188":"Ā","189":"ā","190":"Ă","191":"ă","192":"Ą","193":"ą","194":"Ć","195":"ć","196":"Ĉ","197":"ĉ","198":"Ċ","199":"ċ","200":"Č","201":"č","202":"Ď","203":"ď","204":"Đ","205":"đ","206":"Ē","207":"ē","208":"Ĕ","209":"ĕ","210":"Ė","211":"ė","212":"Ę","213":"ę","214":"Ě","215":"ě","216":"Ĝ","217":"ĝ","218":"Ğ","219":"ğ","220":"","221":"ġ","222":"Ģ","223":"ģ","224":"Ĥ","225":"ĥ","226":"Ħ","227":"ħ","228":"Ĩ","229":"ĩ","230":"Ī","231":"ī","232":"Ĭ","233":"ĭ","234":"Į","235":"į","236":"İ","237":"ı","238":"Ĳ","239":"ĳ","240":"Ĵ","241":"ĵ","242":"Ķ","243":"ķ","244":"ĸ","245":"Ĺ","246":"ĺ","247":"Ļ","248":"ļ","249":"Ľ","250":"ľ","251":"Ŀ","252":"ŀ","253":"Ł","254":"ł","255":"Ń","256":"t","257":"a","258":"th","259":"in","260":"er","261":"w","262":"s","263":"ou","264":"the","265":"re","266":"on","267":"at","268":"en","269":"c","270":"it","271":"is","272":"b","273":"nd","274":"d","275":"m","276":"h","277":"o","278":"ing","279":"es","280":"p","281":"to","282":"an","283":"f","284":"or","285":"ll","286":"I","287":"l","288":"y","289":"ar","290":"g","291":"you","292":"ed","293":"and","294":"in","295":"of","296":"as","297":"n","298":"om","299":"ic","300":"that","301":"us","302":"et","303":"ve","304":"al","305":"ow","306":"le","307":"is","308":"e","309":"it","310":"ot","311":"'s","312":"be","313":"ion","314":"T","315":"wh","316":"A","317":"ent","318":"S","319":"re","320":"ay","321":"we","322":"on","323":"ere","324":"ha","325":"ut","326":"ac","327":"id","328":"ig","329":"os","330":"ke","331":"ver","332":"im","333":"Ð","334":"Th","335":"am","336":"all","337":"for","338":"el","339":"ch","340":"ro","341":"this","342":"st","343":"W","344":"u","345":"ad","346":"out","347":"ir","348":"ld","349":"ct","350":"k","351":"if","352":"go","353":"..","354":"Ð¾","355":"ith","356":"ly","357":"ht","358":"qu","359":"-","360":"do","361":"j","362":"have","363":"B","364":"an","365":"with","366":"are","367":"r","368":"de","369":"se","370":"so","371":"v","372":"st","373":"ill","374":"ur","375":"li","376":"M","377":"est","378":"od","379":"ally","380":"'t","381":"ust","382":"as","383":"C","384":"ce","385":"me","386":"Ð°","387":"Ðµ","388":"il","389":"H","390":"was","391":"ter","392":"th","393":"can","394":"ant","395":"com","396":"our","397":"ight","398":"Y","399":"ation","400":"And","401":"ol","402":"sh","403":"ÑĤ","404":"op","405":"se","406":"not","407":"So","408":"ne","409":"un","410":"ab","411":"like","412":"at","413":"D","414":"ie","415":"he","416":"con","417":"ch","418":"ore","419":"al","420":"or","421":"qu","422":"O","423":"ome","424":"ra","425":"ul","426":"N","427":"pp","428":"your","429":"ould","430":"P","431":"fr","432":"ge","433":"ers","434":"'re","435":"Ð¸","436":"they","437":"what","438":"use","439":"all","440":"The","441":"L","442":"ess","443":"em","444":"kn","445":"just","446":"art","447":"pro","448":"very","449":"um","450":"lo","451":"ì","452":"my","453":"ok","454":"ex","455":"ab","456":"there","457":"but","458":"know","459":"su","460":"G","461":"Ñģ","462":"E","463":"ma","464":"Ð¾Ð","465":"en","466":"about","467":"It","468":"ist","469":"wor","470":"ri","471":"ind","472":"one","473":"ate","474":"and","475":"ink","476":"le","477":"ort","478":"'m","479":"F","480":"ich","481":"ÑĢ","482":"ide","483":"get","484":"out","485":"...","486":"will","487":"ãģ","488":"ive","489":"Ð½","490":"from","491":"ain","492":"We","493":"up","494":"pe","495":"res","496":"ca","497":"R","498":"if","499":"pl","500":"don","501":"ack","502":"1","503":"\"","504":"tr","505":"us","506":"Wh","507":"ity","508":"J","509":"You","510":"here","511":"her","512":"some","513":"oug","514":"ak","515":"ard","516":"going","517":"un","518":"ment","519":"think","520":"pe","521":"end","522":"(","523":"cause","524":"tim","525":"ast","526":"Ã©","527":"our","528":"want","529":"ame","530":"ies","531":"ë","532":"ud","533":"ine","534":"really","535":"te","536":"see","537":"ci","538":"by","539":"so","540":"ure","541":"ose","542":"[","543":"are","544":"more","545":"ah","546":"one","547":"ck","548":"ople","549":"Ð°Ð","550":"then","551":"thing","552":"them","553":"ven","554":"ound","555":"ost","556":"ong","557":"ect","558":"right","559":"ag","560":"int","561":"people","562":"when","563":"ous","564":"pl","565":"time","566":"im","567":"who","568":"2","569":"ap","570":"because","571":"hing","572":"no","573":"ice","574":"look","575":"has","576":"would","577":"how","578":"act","579":"fe","580":"nt","581":"ough","582":"pr","583":"But","584":"say","585":"Ñĥ","586":"now","587":"man","588":"very","589":"work","590":"iz","591":"K","592":"iv","593":"itt","594":"ar","595":"ep","596":"cl","597":"which","598":"co","599":"ans","600":"'ve","601":"sa","602":"ff","603":"'ll","604":"any","605":"act","606":"ye","607":"ber","608":"ach","609":"age","610":"per","611":"also","612":"fer","613":"these","614":"ad","615":"ÐµÐ","616":"ther","617":"ace","618":"ick","619":"ake","620":"reat","621":"ire","622":"ue","623":"ag","624":"U","625":"uch","626":"ions","627":"ry","628":"00","629":"na","630":"did","631":"que","632":"had","633":"every","634":"He","635":"la","636":"way","637":"sp","638":"ble","639":"This","640":"ass","641":"their","642":"ite","643":"need","644":"part","645":"were","646":"back","647":"ip","648":"own","649":"omet","650":"be","651":"ase","652":"make","653":"irst","654":"ia","655":"ence","656":"ang","657":"ank","658":"got","659":"pre","660":"cont","661":"other","662":"pt","663":"That","664":"og","665":"good","666":"into","667":"alk","668":"been","669":"am","670":"over","671":"ually","672":"â","673":"ìĿ","674":"und","675":"he","676":"way","677":"gr","678":"ÑĮ","679":"dif","680":"per","681":"Ñı","682":"In","683":"tw","684":"ond","685":"ars","686":"int","687":"orm","688":"lot","689":"where","690":"Ã","691":"V","692":"somet","693":"Ð»","694":"ens","695":"gu","696":"ac","697":"ug","698":"Ñĭ","699":"Ä±","700":"first","701":"ree","702":"his","703":"ittle","704":"imp","705":"mo","706":"av","707":"little","708":"What","709":"much","710":"z","711":"ê","712":"able","713":"Ð¿","714":"po","715":"comp","716":"ne","717":"dis","718":"let","719":"ance","720":"her","721":"things","722":"start","723":"ult","724":"app","725":"res","726":"fo","727":"could","728":"inter","729":"those","730":"des","731":"well","732":"two","733":"kind","734":"xt","735":"ress","736":"ely","737":"Ã¤","738":"br","739":"thr","740":"Ð²","741":"i","742":"ish","743":"differ","744":"ro","745":"St","746":"something","747":"take","748":"bo","749":"ys","750":"she","751":"talk","752":"lo","753":"Ñĩ","754":"even","755":"Ðº","756":"ãĢ","757":"Ð½","758":"bu","759":"If","760":"down","761":"Ch","762":"ade","763":"ations","764":"use","765":"ord","766":"off","767":"actually","768":"spe","769":"du","770":"ated","771":"ater","772":"oss","773":"ning","774":"Ã¼","775":"does","776":"Ñģ","777":"new","778":"bet","779":"vel","780":"cess","781":"ple","782":"happ","783":"ting","784":"onna","785":"es","786":"day","787":"only","788":"ign","789":"kay","790":"sel","791":"ents","792":"ount","793":"ild","794":"ile","795":"sc","796":"him","797":"again","798":"ving","799":"gonna","800":"comm","801":"hel","802":"other","803":"ke","804":"ical","805":"3","806":"el","807":"through","808":"come","809":"ark","810":"day","811":"ier","812":"Ã³","813":"than","814":"They","815":"may","816":"ser","817":"íķ","818":"call","819":"different","820":"should","821":"There","822":"ary","823":"Now","824":"ãĤ","825":"thing","826":"we","827":"ory","828":"fter","829":"put","830":"ors","831":"ial","832":"ëĭ","833":"under","834":"inc","835":"Ye","836":"ub","837":"form","838":"vide","839":"à¸","840":"vers","841":"feel","842":"Ã¡","843":"ody","844":"ft","845":"fore","846":"em","847":"get","848":"said","849":"ition","850":"rec","851":"ious","852":"atch","853":"try","854":"help","855":"show","856":"Ð´","857":"bit","858":"ull","859":"Ð²","860":"ÑĤÐ¾","861":"gr","862":"play","863":"ife","864":"ail","865":"Yeah","866":"quest","867":"many","868":"pers","869":"great","870":"ÃŃ","871":"est","872":"ng","873":"âĻ","874":"ty","875":"la","876":"Oh","877":"×","878":"à®","879":"Be","880":"ady","881":"most","882":"ction","883":"No","884":"doing","885":"being","886":"too","887":"ces","888":"bl","889":".\"","890":"rem","891":"iss","892":"ons","893":">>","894":"ru","895":"wn","896":"ont","897":"ib","898":"ell","899":"sm","900":"oth","901":"ual","902":">>","903":"ph","904":"les","905":"oc","906":"ful","907":"sec","908":"ise","909":"add","910":"igh","911":"ert","912":"same","913":"âĢ","914":"mean","915":"find","916":"ek","917":"end","918":"--","919":"Ð¼","920":"still","921":"az","922":"'","923":"min","924":"years","925":"urn","926":"around","927":"self","928":"wr","929":"bs","930":"ought","931":"âĻª","932":"fl","933":"ange","934":"after","935":"point","936":"mer","937":"ved","938":"long","939":"oy","940":"ä¸","941":"cr","942":"ways","943":"sy","944":"tra","945":"20","946":"ave","947":"che","948":"ent","949":"before","950":"ph","951":"att","952":"ian","953":"ily","954":"person","955":"big","956":"sch","957":"real","958":"next","959":"love","960":"video","961":"Let","962":"fin","963":"mak","964":"ible","965":"today","966":"erm","967":"Al","968":"ower","969":"ann","970":"ix","971":"par","972":"stud","973":"Ã¶","974":"import","975":"te","976":"give","977":"ves","978":"die","979":"dec","980":"tell","981":"Ðº","982":"ÑģÑĤ","983":"why","984":"ically","985":"ict","986":"red","987":"bas","988":"sure","989":"bel","990":"ating","991":"tak","992":"set","993":"life","994":"didn","995":"Ø§","996":"ob","997":"und","998":"ath","999":"op","1000":"Ð¾","1001":"ait","1002":"world","1003":"supp","1004":"io","1005":"cour","1006":"Ð¸","1007":"ward","1008":"ÐµÐ½","1009":"always","1010":"up","1011":"hand","1012":"How","1013":"cial","1014":"cons","1015":"Ñ","1016":"ind","1017":"4","1018":"As","1019":"fun","1020":"ject","1021":"important","1022":"sur","1023":"ew","1024":"ates","1025":"5","1026":"di","1027":"made","1028":"ins","1029":"ask","1030":"et","1031":"num","1032":"car","1033":"Okay","1034":"sim","1035":"ik","1036":"last","1037":"Go","1038":"mus","1039":"rel","1040":"ular","1041":"´ì","1042":"Well","1043":"pect","1044":"Thank","1045":"three","1046":"Ã£","1047":"ãĥ","1048":"inv","1049":"gen","1050":"lic","1051":"happen","1052":"ëĬ","1053":"ien","1054":"ever","1055":"Ð¾Ð²","1056":"str","1057":"All","1058":"inst","1059":"âĢ","1060":"def","1061":"sl","1062":"might","1063":"ung","1064":"year","1065":"own","1066":"keep","1067":"body","1068":"der","1069":"ÑĤ","1070":"Ð´","1071":"another","1072":"mod","1073":"ev","1074":"guys","1075":"able","1076":"Ã£o","1077":"que","1078":"ident","1079":"Yes","1080":"its","1081":"place","1082":"produ","1083":"arn","1084":"Ð¼","1085":"rep","1086":"exper","1087":"fam","1088":"ities","1089":"ific","1090":"high","1091":"ied","1092":"ool","1093":"iew","1094":"ÐµÑĤ","1095":"ren","1096":"done","1097":"...","1098":"ëĬĶ","1099":"stem","1100":"Se","1101":"better","1102":"come","1103":"del","1104":"ty","1105":"um","1106":"ho","1107":"An","1108":"mon","1109":"ings","1110":"sk","1111":"ob","1112":"com","1113":"blem","1114":"ope","1115":"stand","1116":"'d","1117":"ments","1118":"ele","1119":"Is","1120":"da","1121":"reg","1122":"lease","1123":"ike","1124":"als","1125":"ize","1126":"ê°","1127":"care","1128":"never","1129":"ìĿ´","1130":"ese","1131":"met","1132":"olog","1133":"When","1134":"uck","1135":"ÐµÑĢ","1136":"Ã©","1137":"dat","1138":"Ã§","1139":"exam","1140":"ility","1141":"det","1142":"cri","1143":"used","1144":"Do","1145":"trans","1146":"eg","1147":"ten","1148":"Ñİ","1149":"cus","1150":"second","1151":"best","1152":"hard","1153":"ide","1154":"problem","1155":"ê³","1156":"Un","1157":"Ñħ","1158":"Î","1159":"watch","1160":"Sh","1161":"atter","1162":"pret","1163":"der","1164":"course","1165":"ÅŁ","1166":"ative","1167":"ics","1168":"question","1169":"ute","1170":"ìĹ","1171":"For","1172":"ather","1173":"col","1174":"iend","1175":"í","1176":"Z","1177":"doesn","1178":"arch","1179":"interest","1180":"pol","1181":"cor","1182":"ience","1183":"pres","1184":"each","1185":"system","1186":"fact","1187":"iel","1188":"ably","1189":"er","1190":"run","1191":"ìĿ","1192":"top","1193":"ner","1194":"thought","1195":"eas","1196":"ient","1197":"cre","1198":"ÑĪ","1199":"commun","1200":"ye","1201":"ready","1202":"llow","1203":"everything","1204":"omm","1205":"med","1206":"ļĶ","1207":"count","1208":"its","1209":"compl","1210":"hip","1211":"ÙĦ","1212":"ook","1213":"toget","1214":"together","1215":"amp","1216":"game","1217":"already","1218":"Ð°Ð»","1219":"called","1220":"ale","1221":"ÅĤ","1222":"My","1223":"understand","1224":"dr","1225":"mom","1226":"ited","1227":"Ð¾Ð»","1228":"using","1229":"zy","1230":"number","1231":"ãĢģ","1232":"ced","1233":"cle","1234":"Ð½Ð¾","1235":"ëĭ¤","1236":"ince","1237":"looking","1238":"pretty","1239":"prob","1240":"She","1241":"ve","1242":"getting","1243":"week","1244":"eff","1245":"uff","1246":"air","1247":"ues","1248":"ern","1249":"Q","1250":"oup","1251":"ention","1252":"side","1253":"Ð¾Ð¼","1254":"form","1255":"bus","1256":"ass","1257":"ed","1258":"ason","1259":"ween","1260":"âĢ¦","1261":"turn","1262":"cur","1263":"coll","1264":"dire","1265":"God","1266":"10","1267":"equ","1268":"Ð±","1269":"open","1270":"such","1271":"ird","1272":"Ð°Ðº","1273":"ear","1274":"ÄĻ","1275":"gan","1276":"partic","1277":"friend","1278":"exp","1279":"ext","1280":"home","1281":"water","1282":"On","1283":"ÑĤÑĮ","1284":"ork","1285":"Ð¿ÑĢ","1286":"move","1287":"ness","1288":"ense","1289":"ho","1290":"char","1291":"co","1292":"ins","1293":"both","1294":"19","1295":"gra","1296":"between","1297":"á»","1298":"ìķ","1299":"ash","1300":"Re","1301":"ai","1302":"alth","1303":"ures","1304":"ember","1305":"av","1306":"ver","1307":"Ãª","1308":"oney","1309":"thank","1310":"maybe","1311":"uc","1312":"ime","1313":"ê³ł","1314":"away","1315":"name","1316":"ouse","1317":"acc","1318":"music","1319":"change","1320":"pass","1321":"ger","1322":"build","1323":"val","1324":"iness","1325":"any","1326":"few","1327":"´ë","1328":"ta","1329":"list","1330":"Ã¥","1331":"old","1332":"ìŀ","1333":"sort","1334":"mem","1335":"ca","1336":"cept","1337":"gener","1338":"yeah","1339":"while","1340":"anything","1341":"ric","1342":"gram","1343":"ein","1344":"cy","1345":"uring","1346":"De","1347":"power","1348":"coming","1349":"word","1350":"--","1351":"belie","1352":"found","1353":"to","1354":"Ð¿","1355":"means","1356":"inform","1357":"Ø","1358":"Ñĩ","1359":"small","1360":"000","1361":"came","1362":"íķ","1363":"wh","1364":"working","1365":"example","1366":"pos","1367":"dep","1368":"ê²","1369":"äº","1370":"ote","1371":"dem","1372":"ì§","1373":"ts","1374":"var","1375":"aut","1376":"tri","1377":"chn","1378":"head","1379":"whole","1380":"×Ļ","1381":"ze","1382":"trying","1383":"tem","1384":"cou","1385":"ets","1386":"6","1387":"fil","1388":"velop","1389":"case","1390":"à¯","1391":"probably","1392":"okay","1393":"plan","1394":"sit","1395":"school","1396":"Then","1397":"¸ë","1398":"me","1399":"process","1400":"far","1401":"read","1402":"poss","1403":"bre","1404":"sol","1405":"icht","1406":"support","1407":"To","1408":"ertain","1409":"started","1410":"cap","1411":"left","1412":"data","1413":"times","1414":"ÐµÐ»","1415":"wanted","1416":"Ð°Ð½","1417":"talking","1418":"ist","1419":"having","1420":"ump","1421":"contin","1422":"sub","1423":"Ð·","1424":"pr","1425":"ëĭĪ","1426":"ina","1427":"Å¼","1428":"creat","1429":"ode","1430":"×ķ","1431":"æĺ","1432":"!!","1433":"term","1434":"ism","1435":"Ð¾Ð´","1436":"Because","1437":"went","1438":"ider","1439":"prov","1440":"child","1441":"den","1442":"light","1443":"br","1444":"³Ð¾","1445":"oh","1446":"book","1447":"Ù","1448":"ution","1449":"Just","1450":"ene","1451":"four","1452":"vis","1453":"ê°Ģ","1454":"hope","1455":"making","1456":"Le","1457":"ìķ","1458":"opp","1459":"au","1460":"money","1461":"program","1462":"Ã¨","1463":"stand","1464":"IN","1465":"sign","1466":"learn","1467":"Ãł","1468":"Don","1469":"team","1470":"Ð½Ð°","1471":"lud","1472":"rest","1473":"ices","1474":"æľ","1475":"ÑĢ","1476":"aut","1477":"lead","1478":"ational","1479":"de","1480":"gy","1481":"nice","1482":"das","1483":"dist","1484":"hum","1485":"One","1486":"æĪ","1487":"comes","1488":"jo","1489":"cent","1490":"expl","1491":"mark","1492":"reen","1493":"led","1494":"gin","1495":"ìļĶ","1496":"level","1497":"conf","1498":"ush","1499":"develop","1500":"test","1501":"eng","1502":"vious","1503":"ature","1504":"ÐµÐ¼","1505":"ret","1506":"je","1507":"stuff","1508":"class","1509":"ows","1510":"ê·","1511":"si","1512":"les","1513":"rop","1514":"çļ","1515":"por","1516":"war","1517":"ìĹĲ","1518":"everyone","1519":"ge","1520":"check","1521":"ott","1522":"sing","1523":"art","1524":"follow","1525":"201","1526":"Fr","1527":"ais","1528":"ìĸ","1529":"Î±","1530":"å°","1531":"Ãł","1532":"imes","1533":"ret","1534":"chang","1535":"pub","1536":"inf","1537":"techn","1538":"ada","1539":"ives","1540":"beh","1541":"æĺ¯","1542":"looks","1543":"ãĢĤ","1544":"Ð·","1545":"Why","1546":"çļĦ","1547":"enough","1548":"bra","1549":"itch","1550":"ä»","1551":"adv","1552":"Ð±","1553":"without","1554":"wer","1555":"meric","1556":"den","1557":"complet","1558":"idea","1559":"ters","1560":"ock","1561":"defin","1562":"ever","1563":"gl","1564":"once","1565":"bring","1566":"saying","1567":"ans","1568":"hear","1569":"nect","1570":"less","1571":"go","1572":"ream","1573":"ado","1574":"ìŀ","1575":"mind","1576":"ente","1577":"full","1578":"bad","1579":"wom","1580":"someone","1581":"du","1582":"won","1583":"contro","1584":"ortun","1585":"health","1586":"cho","1587":"Ar","1588":"conc","1589":"information","1590":"stop","1591":"att","1592":"ately","1593":"ä½","1594":"group","1595":"Ñĥ","1596":"quite","1597":"resp","1598":"ER","1599":"ught","1600":"ê¸","1601":"man","1602":"ized","1603":"Br","1604":"remember","1605":"family","1606":"business","1607":"aw","1608":"spec","1609":"au","1610":"Or","1611":"Äħ","1612":"seen","1613":"lar","1614":"7","1615":"gg","1616":"bers","1617":"dra","1618":"month","1619":"says","1620":"iss","1621":"live","1622":"line","1623":"moment","1624":"exc","1625":"els","1626":"sound","1627":"cool","1628":"loc","1629":"certain","1630":"dri","1631":"Ð¾ÑĤ","1632":"ames","1633":"must","1634":"ny","1635":"Ð¸ÑĤ","1636":"kid","1637":"includ","1638":"ìĿĦ","1639":"ator","1640":"ÄŁ","1641":"ha","1642":"ared","1643":"seem","1644":"Ð¹","1645":"ìĦ","1646":"else","1647":"ìł","1648":"irl","1649":"8","1650":"vo","1651":"questions","1652":"ines","1653":"ee","1654":"æĪĳ","1655":"Ã¼r","1656":"Americ","1657":"story","1658":"serv","1659":"vern","1660":"ages","1661":"land","1662":"âĢĵ","1663":"era","1664":"Can","1665":"pop","1666":"ether","1667":"na","1668":"order","1669":"makes","1670":"since","1671":"con","1672":"ctor","1673":"though","1674":"product","1675":"Ð»Ð¸","1676":"leg","1677":"meet","1678":"alf","1679":"ÑģÑı","1680":"unch","1681":"iter","1682":"ove","1683":"×ķ×","1684":"iet","1685":"Ð°Ð¼","1686":"ital","1687":"super","1688":"ling","1689":"pay","1690":"para","1691":"job","1692":"Here","1693":"sw","1694":"ks","1695":"ption","1696":"ma","1697":"believe","1698":"¬ë","1699":"wait","1700":"Ð¾Ð¹","1701":"unt","1702":"quick","1703":"hr","1704":"Ñį","1705":"Pro","1706":"men","1707":"à¹","1708":"days","1709":"goes","1710":"speak","1711":"At","1712":"ement","1713":"miss","1714":"aw","1715":"design","1716":"project","1717":"Ð¾ÑĢ","1718":"ij","1719":"ants","1720":"ats","1721":"Chr","1722":"9","1723":"cut","1724":"requ","1725":"Ð½Ðµ","1726":"Not","1727":"aster","1728":"mill","1729":"particular","1730":"pie","1731":"students","1732":"five","1733":"oun","1734":"Ne","1735":"gi","1736":"pas","1737":"free","1738":"Sp","1739":"lich","1740":"prof","1741":"eng","1742":"prot","1743":"Like","1744":"osed","1745":"connect","1746":"app","1747":"ë§","1748":"iting","1749":"blo","1750":"los","1751":"ists","1752":"experience","1753":"rent","1754":"stay","1755":"food","1756":"ton","1757":"ruct","1758":"hist","1759":"view","1760":"ining","1761":"most","1762":"ivers","1763":"bo","1764":"ãģĦ","1765":"Tr","1766":"gen","1767":"please","1768":"community","1769":"ce","1770":"AN","1771":"no","1772":"body","1773":"hour","1774":"vers","1775":"áº","1776":"cer","1777":"ê°","1778":"reason","1779":"Right","1780":"later","1781":"ÏĦ","1782":"house","1783":"X","1784":"Ð¾Ð½","1785":"state","1786":"fic","1787":"å¤","1788":"ÅĽ","1789":"ield","1790":"pri","1791":"past","1792":"walk","1793":"ology","1794":"ering","1795":"anna","1796":"ter","1797":"hold","1798":"organ","1799":"ben","1800":"Î¿","1801":"Ã³n","1802":"effect","1803":"yourself","1804":"plus","1805":"aj","1806":"ando","1807":"ural","1808":"room","1809":"lect","1810":"ê²Į","1811":"?\"","1812":"side","1813":"become","1814":"ÑĨ","1815":"Â","1816":"ood","1817":"const","1818":"night","1819":"utes","1820":"Ð¶","1821":"break","1822":"pain","1823":"step","1824":"ired","1825":"nothing","1826":"until","1827":"Ñĸ","1828":"Ð°Ð²","1829":"ÙĬ","1830":"during","1831":"ì§Ģ","1832":"less","1833":"oll","1834":"Ð½Ñĭ","1835":"Î¹","1836":"fect","1837":"iver","1838":"ıĦ","1839":"ither","1840":"ying","1841":"begin","1842":"×Ļ×","1843":"ivid","1844":"Ã§","1845":"sal","1846":"ta","1847":"pot","1848":"$","1849":"mar","1850":"clear","1851":"face","1852":"grow","1853":"*","1854":"inside","1855":"friends","1856":"leave","1857":"enn","1858":"easy","1859":"area","1860":"ality","1861":"oud","1862":"eat","1863":"ÙĨ","1864":"pur","1865":"orn","1866":"saw","1867":"answer","1868":"front","1869":"beaut","1870":"¼ë","1871":"matter","1872":"son","1873":"New","1874":"result","1875":"ides","1876":"che","1877":"fut","1878":"ps","1879":"focus","1880":"interesting","1881":"å¥","1882":"ap","1883":"\".","1884":"create","1885":"Ð¾Ñģ","1886":"press","1887":"ross","1888":"pick","1889":"line","1890":"took","1891":"May","1892":"row","1893":"ich","1894":"ĺë","1895":"ref","1896":"mor","1897":"ract","1898":"arent","1899":"AR","1900":"exact","1901":"space","1902":"work","1903":"Ð½Ð¸","1904":"bir","1905":"dev","1906":"Ð³","1907":"told","1908":"public","1909":"cially","1910":"view","1911":"Hey","1912":"med","1913":"llo","1914":"cc","1915":"fac","1916":"couple","1917":"heart","1918":"ler","1919":"ready","1920":"almost","1921":"aring","1922":"half","1923":"Me","1924":"avor","1925":"ique","1926":"charac","1927":"pract","1928":"ON","1929":"ane","1930":"il","1931":"Ð½Ð°","1932":"vi","1933":"lish","1934":"head","1935":"least","1936":"basically","1937":"ased","1938":"right","1939":"yet","1940":"taking","1941":"country","1942":"win","1943":"isn","1944":"possible","1945":"cam","1946":"incre","1947":"pat","1948":"wanna","1949":"consider","1950":"abs","1951":"within","1952":"human","1953":"thinking","1954":"oh","1955":"¡ľ","1956":"qui","1957":"ases","1958":"0","1959":"itely","1960":"ä¸į","1961":"kill","1962":"mil","1963":"invest","1964":"ister","1965":"suc","1966":"ional","1967":"elf","1968":"whether","1969":"control","1970":"against","1971":"ots","1972":"ëĭĪëĭ¤","1973":"ior","1974":"present","1975":"Ø§","1976":"watching","1977":"ube","1978":"erv","1979":"nicht","1980":"govern","1981":"These","1982":":","1983":"uit","1984":"ugh","1985":"works","1986":"oo","1987":"wir","1988":"air","1989":"Te","1990":"Ð°Ð·","1991":"ision","1992":"where","1993":"tot","1994":"joy","1995":"ìĭ","1996":"vol","1997":"Ðµ","1998":"close","1999":"Ad","2000":"Ñī","2001":"ined","2002":"una","2003":"ê·¸ë","2004":"°ë","2005":"orry","2006":"bro","2007":"film","2008":"ift","2009":"20","2010":"type","2011":"happened","2012":"Am","2013":"girl","2014":"Are","2015":"wards","2016":"pour","2017":"color","2018":"elt","2019":"Ð°Ñģ","2020":"sense","2021":"lex","2022":"With","2023":"uss","2024":"rib","2025":"rese","2026":"norm","2027":"future","2028":"deal","2029":"ending","2030":"ey","2031":"x","2032":"ero","2033":"Cl","2034":"uk","2035":"whatever","2036":"selves","2037":"young","2038":"ìĬ","2039":"Mar","2040":"Christ","2041":"guess","2042":"perform","2043":"ener","2044":"ron","2045":"hit","2046":"wond","2047":"direct","2048":"Every","2049":"often","2050":"fa","2051":"along","2052":"click","2053":"Look","2054":"situ","2055":"happy","2056":"ead","2057":"ago","2058":"enc","2059":"myself","2060":"cover","2061":"Ð¾Ð±","2062":"mid","2063":"cost","2064":"ten","2065":"Sch","2066":"expect","2067":"wasn","2068":"strong","2069":"iful","2070":"opportun","2071":"inal","2072":"yle","2073":"share","2074":"true","2075":"appro","2076":"chall","2077":"minutes","2078":"chann","2079":"ëĤ","2080":"Îµ","2081":"li","2082":"mess","2083":"ories","2084":"pecially","2085":"wrong","2086":"yes","2087":"ìĹ","2088":"iron","2089":"allow","2090":"subs","2091":"fore","2092":"fight","2093":"social","2094":"cra","2095":"ana","2096":"aff","2097":"ess","2098":"ways","2099":"short","2100":"fall","2101":"law","2102":"Who","2103":"enjoy","2104":"cal","2105":"access","2106":"fe","2107":"non","2108":"across","2109":"ery","2110":"viously","2111":"Ex","2112":"ided","2113":"link","2114":"Pr","2115":"terms","2116":"aces","2117":"land","2118":"azing","2119":"15","2120":"mult","2121":"special","2122":"åĢ","2123":"iving","2124":"ìĿĢ","2125":"typ","2126":"ste","2127":"Ä","2128":"forward","2129":"åı","2130":"fre","2131":"å¥½","2132":"research","2133":"à¯į","2134":"Ð°ÑĤ","2135":"main","2136":"record","2137":"hu","2138":"definitely","2139":"either","2140":"listen","2141":"key","2142":"market","2143":"ÑĩÑĤÐ¾","2144":"ization","2145":"videos","2146":"guy","2147":"fig","2148":"stra","2149":"Pl","2150":"ully","2151":"amos","2152":"mention","2153":"song","2154":"intern","2155":"ral","2156":"urs","2157":"hon","2158":"value","2159":"bar","2160":"cle","2161":"Ð¾Ð¶","2162":"Äĩ","2163":"ľë","2164":"zu","2165":"Ð¸Ð¼","2166":"ä½ł","2167":"single","2168":"auch","2169":"cuss","2170":"gets","2171":"sometimes","2172":"å¾","2173":"amb","2174":"mm","2175":"cing","2176":"perfect","2177":"Bl","2178":"outh","2179":"ìł","2180":"sci","2181":"par","2182":"red","2183":"post","2184":"mot","2185":"elect","2186":"Eu","2187":"itive","2188":"Some","2189":"descri","2190":"current","2191":"Ã©s","2192":"tre","2193":"En","2194":"mit","2195":"EN","2196":"Īë","2197":"ium","2198":"heard","2199":"simple","2200":"lar","2201":"everybody","2202":"ilar","2203":"needs","2204":"diffic","2205":"Good","2206":"ument","2207":"cent","2208":"oper","2209":"Ð°ÑĤÑĮ","2210":"ety","2211":"black","2212":"given","2213":"ones","2214":"wel","2215":"éĢ","2216":"ìķĦ","2217":"30","2218":"AT","2219":"stat","2220":"ouch","2221":"Mr","2222":"Ð°ÑĢ","2223":"sho","2224":"cond","2225":"×Ķ","2226":"my","2227":"children","2228":"eu","2229":"ÐµÐ´","2230":"ìķĦ","2231":"tern","2232":"uh","2233":"har","2234":"prom","2235":"pull","2236":"rew","2237":"company","2238":"beautiful","2239":"ustom","2240":"íķĺ","2241":"ÐºÐ¸","2242":"stre","2243":"amazing","2244":"ries","2245":"success","2246":"mach","2247":"not","2248":"discuss","2249":"nat","2250":"¦¬","2251":"une","2252":"difficult","2253":"ris","2254":"Î½","2255":"camp","2256":"buy","2257":"ä¸Ģ","2258":"mag","2259":"po","2260":"Your","2261":"behind","2262":"ica","2263":"Ä±n","2264":"OK","2265":"lang","2266":"women","2267":"env","2268":"rece","2269":"channel","2270":"ially","2271":"ule","2272":"12","2273":"thers","2274":"bott","2275":"report","2276":"ently","2277":"fully","2278":"The","2279":"sent","2280":"event","2281":"energy","2282":"lt","2283":"words","2284":"arr","2285":"dle","2286":"ahead","2287":"ards","2288":"Ø±","2289":"äºĨ","2290":"tool","2291":"conom","2292":"ÐµÑģ","2293":"exactly","2294":"favor","2295":"low","2296":"proper","2297":"ìŀĪ","2298":"!","2299":"relations","2300":"mas","2301":"kids","2302":"entire","2303":"ude","2304":"Ùħ","2305":"Where","2306":"ones","2307":"city","2308":"olut","2309":"six","2310":"ability","2311":"Ã¶r","2312":"ili","2313":"Es","2314":"happens","2315":"ains","2316":"model","2317":"pict","2318":"especially","2319":"100","2320":"kt","2321":"soon","2322":"by","2323":"rodu","2324":"ann","2325":"subscri","2326":"Qu","2327":"avail","2328":"iment","2329":"voc","2330":"ka","2331":"200","2332":"aper","2333":"Ind","2334":"ì§","2335":"hor","2336":"į°","2337":"jor","2338":"Ð¸Ð»","2339":"squ","2340":"AU","2341":"arning","2342":"Ð³","2343":"IS","2344":"Ð»","2345":"ÐµÐ¹","2346":"yes","2347":"åħ","2348":"ÐĴ","2349":"orig","2350":"Ð¾Ð³Ð¾","2351":"asked","2352":"ilt","2353":"Ð¾Ð³","2354":"continue","2355":"ìĺ","2356":"ram","2357":"others","2358":"ES","2359":"ohn","2360":"lay","2361":"based","2362":"pu","2363":"appe","2364":"lim","2365":"prop","2366":"Ģë","2367":"min","2368":"hot","2369":"La","2370":"fast","2371":"protect","2372":"amount","2373":"aqu","2374":"fund","2375":"custom","2376":"cult","2377":"hands","2378":"haven","2379":"aud","2380":"outside","2381":"After","2382":"aps","2383":"anim","2384":"ploy","2385":"hat","2386":"First","2387":"treat","2388":"ep","2389":"mater","2390":"building","2391":"ë°","2392":"åĲ","2393":"ìĦľ","2394":"za","2395":"ughter","2396":"Pe","2397":"ney","2398":"eter","2399":"atic","2400":"educ","2401":"ê¸°","2402":"mov","2403":"ĵ¤","2404":"ama","2405":"ration","2406":"sn","2407":"ÙĪ","2408":"sum","2409":"phot","2410":"ÐĿ","2411":".","2412":"æľī","2413":"finish","2414":"itting","2415":"å®","2416":"large","2417":"ìĸ","2418":"white","2419":"ara","2420":"mais","2421":"Hi","2422":"dam","2423":"Ø§ÙĦ","2424":"box","2425":"Hello","2426":"sle","2427":"opt","2428":"ried","2429":"¥¼","2430":"activ","2431":"nÃ£o","2432":"Com","2433":"playing","2434":"Th","2435":"available","2436":"port","2437":"åĪ","2438":"Ah","2439":"las","2440":"early","2441":"wonder","2442":"±°","2443":"18","2444":"cul","2445":"function","2446":"morning","2447":"lle","2448":"ients","2449":"ux","2450":"cir","2451":"itions","2452":"deep","2453":"polit","2454":"yor","2455":"mp","2456":"aking","2457":"Įë","2458":"Man","2459":"million","2460":"/","2461":"individ","2462":"pan","2463":"government","2464":"write","2465":"Tod","2466":"ament","2467":"Ï","2468":"wind","2469":"Eng","2470":"chen","2471":"Wh","2472":"ìľ","2473":"ident","2474":"ãģ§","2475":"vent","2476":"urch","2477":"hy","2478":"ya","2479":"trad","2480":"relationship","2481":"Ãº","2482":"dou","2483":"OR","2484":"swe","2485":"neg","2486":"ination","2487":"text","2488":"ipp","2489":"fine","2490":"Ã¡s","2491":"Dr","2492":"Come","2493":"months","2494":",\"","2495":"ÐµÐ½Ð¸","2496":"hours","2497":"pod","2498":"irt","2499":"invol","2500":"collect","2501":"auf","2502":"pa","2503":"history","2504":"mb","2505":"ify","2506":"?","2507":"below","2508":"asure","2509":"aby","2510":"langu","2511":"ant","2512":"comb","2513":"ato","2514":"exist","2515":"ëĭ","2516":"takes","2517":"character","2518":"aff","2519":"field","2520":"econom","2521":"ief","2522":"piece","2523":"åľ","2524":"reach","2525":"ê²","2526":"ony","2527":"material","2528":"dig","2529":"phys","2530":"impro","2531":"similar","2532":"IC","2533":"net","2534":"yn","2535":"position","2536":"ÃŁ","2537":"bene","2538":"read","2539":"learning","2540":"ume","2541":"clean","2542":"ÑĤÐ¾ÑĢ","2543":"cook","2544":"seems","2545":"ol","2546":"US","2547":"Jes","2548":"à®","2549":"ential","2550":"iversity","2551":"acy","2552":"Ñı","2553":"olutely","2554":"rect","2555":"Please","2556":"repres","2557":"touch","2558":"men","2559":"Ð°","2560":"iÃ³n","2561":"Thanks","2562":"ang","2563":"major","2564":"itself","2565":"ills","2566":"\",","2567":"ians","2568":"screen","2569":"hor","2570":"known","2571":"environ","2572":"final","2573":"figure","2574":"Tw","2575":"eyes","2576":"imag","2577":"seeing","2578":"hair","2579":"rem","2580":"applic","2581":"ends","2582":"put","2583":"news","2584":"completely","2585":"ughs","2586":"knew","2587":"ified","2588":"Je","2589":"Did","2590":"situation","2591":"flo","2592":"ms","2593":"phone","2594":"ball","2595":"do","2596":"parent","2597":"sorry","2598":"ury","2599":"Ð¸Ð½","2600":"ips","2601":"Ð°Ð´","2602":"instead","2603":"huge","2604":"tu","2605":"ãģ","2606":"Gr","2607":"detail","2608":"ÐŁ","2609":"individual","2610":"fire","2611":"clos","2612":"wer","2613":"une","2614":"running","2615":"convers","2616":"recomm","2617":"como","2618":"somebody","2619":"John","2620":"ìĿ´","2621":"Our","2622":"ples","2623":"Ph","2624":"anal","2625":"50","2626":"offer","2627":"<","2628":"itional","2629":"gest","2630":"vous","2631":"let","2632":"icy","2633":"feeling","2634":"LE","2635":"ros","2636":"third","2637":"Ð¾Ðº","2638":"series","2639":"Any","2640":"ised","2641":"old","2642":"draw","2643":"service","2644":"cannot","2645":"bal","2646":"ãģĨ","2647":"living","2648":"Ä±m","2649":"difference","2650":"opportunity","2651":"near","2652":"orth","2653":"ken","2654":"local","2655":"Øª","2656":"Con","2657":"object","2658":"dass","2659":"ãģĻ","2660":"Ĳ×","2661":"quickly","2662":"raph","2663":"issues","2664":"éĢĻ","2665":"American","2666":"prep","2667":"ences","2668":"profess","2669":"lling","2670":"of","2671":"foot","2672":"bre","2673":"usually","2674":"general","2675":"da","2676":"ances","2677":"dest","2678":"occ","2679":"members","2680":"dans","2681":"equal","2682":"zt","2683":"becom","2684":"moving","2685":"specific","2686":"ÃŃa","2687":"fur","2688":"necess","2689":"common","2690":"attack","2691":"ÑįÑĤÐ¾","2692":"Today","2693":"uns","2694":"Gu","2695":"iod","2696":"account","2697":"grand","2698":"self","2699":"El","2700":"tast","2701":"content","2702":"cu","2703":"Ħë","2704":"Maybe","2705":"Jesus","2706":"ores","2707":"port","2708":"©´","2709":"gives","2710":"normal","2711":"ÑĢÑĥ","2712":"impact","2713":"Ã¤r","2714":"dies","2715":"lab","2716":"sh","2717":"ios","2718":"Pres","2719":"Und","2720":"Of","2721":"finally","2722":"doll","2723":"vocÃª","2724":"ply","2725":"Ag","2726":"taken","2727":"ground","2728":"fort","2729":"gave","2730":"Inst","2731":"lost","2732":"worked","2733":"liter","2734":"issue","2735":"indust","2736":"return","2737":"happening","2738":"wants","2739":"Ð¸Ð²","2740":"problems","2741":"Car","2742":"Ŀ¼","2743":"Also","2744":"size","2745":"obviously","2746":"Su","2747":"Sc","2748":"recommend","2749":"ources","2750":"astic","2751":"....","2752":"mi","2753":"lier","2754":"Even","2755":"cia","2756":"hur","2757":"va","2758":"mass","2759":"wouldn","2760":"unt","2761":"cks","2762":"felt","2763":"osp","2764":"light","2765":"Ð¾Ð»ÑĮ","2766":"nie","2767":"bottom","2768":"Ð±Ñĭ","2769":"ored","2770":"ison","2771":"grad","2772":"uma","2773":"va","2774":"ìĤ","2775":"ression","2776":"ulation","2777":"ID","2778":"idence","2779":"bur","2780":"gone","2781":"lu","2782":"ìĸ´ì","2783":"redu","2784":"ja","2785":"ìĿĺ","2786":"ita","2787":"soft","2788":"Ã§a","2789":"ico","2790":"eral","2791":"Ã±","2792":"af","2793":"points","2794":"gu","2795":"dÃ©","2796":"apt","2797":"ax","2798":"Alright","2799":"camera","2800":"ach","2801":"Ð¿Ð¾","2802":"sever","2803":"50","2804":"sie","2805":"Ïģ","2806":"mal","2807":"comput","2808":"middle","2809":"couldn","2810":"ming","2811":"ìĭ","2812":"His","2813":"games","2814":"introdu","2815":"cell","2816":"por","2817":"sleep","2818":"ë³","2819":"iding","2820":"ou","2821":"deg","2822":"drink","2823":"environment","2824":"United","2825":"talked","2826":"choose","2827":"jour","2828":"ege","2829":"Min","2830":"inte","2831":"rather","2832":"offic","2833":"ÐºÐ°","2834":"aching","2835":"mentioned","2836":"fill","2837":"track","2838":"nie","2839":"ut","2840":"Ð²Ñĭ","2841":"ibility","2842":"vac","2843":"rad","2844":"pack","2845":"send","2846":"Das","2847":"Ab","2848":"engine","2849":"ãģĹ","2850":"compet","2851":"Ã´","2852":"Ð²Ñģ","2853":"door","2854":"longer","2855":"å°į","2856":"language","2857":"extra","2858":"play","2859":"webs","2860":"umb","2861":"room","2862":"çľ","2863":"beginning","2864":"refer","2865":"AM","2866":"nen","2867":"igher","2868":"face","2869":"erc","2870":"forget","2871":"comment","2872":"ÐµÐº","2873":"Ð»Ñı","2874":"ror","2875":"Å¼e","2876":"Ge","2877":"dark","2878":"anyone","2879":"ante","2880":"ges","2881":"ìĬµ","2882":"Ñĳ","2883":"bed","2884":"je","2885":"ructure","2886":"prim","2887":"ida","2888":"è¦","2889":"ãģ¾","2890":"mix","2891":"starting","2892":"ìĿ´ë","2893":"provide","2894":"action","2895":"mother","2896":"period","2897":"stick","2898":"YouT","2899":"technology","2900":"ê¹","2901":"bed","2902":"giving","2903":"explain","2904":"zen","2905":"imate","2906":"represent","2907":"load","2908":"However","2909":"lives","2910":"uth","2911":"irit","2912":"ogn","2913":"lik","2914":"respons","2915":"priv","2916":"tom","2917":"Ã§Ã£o","2918":"iam","2919":"excited","2920":"card","2921":"ground","2922":"×Ķ","2923":"sens","2924":"teach","2925":"ido","2926":"hod","2927":"epis","2928":"welcome","2929":"wall","2930":"ä¹","2931":"chance","2932":"hen","2933":"Ð¡","2934":"Äĳ","2935":"simply","2936":"ÑĤÐ°Ðº","2937":"ring","2938":"ja","2939":"book","2940":"several","2941":"ste","2942":"created","2943":"Ð¾ÑĤ","2944":"push","2945":"==","2946":"higher","2947":"uf","2948":"ource","2949":"oke","2950":"online","2951":"rele","2952":"ton","2953":"ensive","2954":"favorite","2955":"ÑĥÐ´","2956":"looked","2957":"von","2958":"âĢĶ","2959":"fÃ¼r","2960":"button","2961":"bill","2962":"changes","2963":"!\"","2964":"slow","2965":"ables","2966":"death","2967":"ands","2968":"ateg","2969":"themselves","2970":"ãģ£","2971":"cop","2972":"ãģ®","2973":"personal","2974":"ughing","2975":"11","2976":"gar","2977":"ades","2978":"needed","2979":"study","2980":"aged","2981":"ÑģÑĤÐ²","2982":"ino","2983":"disc","2984":"ki","2985":"address","2986":"×¨","2987":"itten","2988":"esome","2989":"Ð¶","2990":"¤ë","2991":"ura","2992":"mu","2993":"continu","2994":"for","2995":"match","2996":"ãģ¦","2997":"straight","2998":"Ĳë","2999":"ners","3000":"dog","3001":"deb","3002":"CO","3003":"os","3004":"ged","3005":"came","3006":"correct","3007":"ette","3008":"See","3009":"including","3010":"Euro","3011":"ester","3012":"jump","3013":"Which","3014":"ÐºÐ°Ðº","3015":"son","3016":"ya","3017":"ING","3018":"eine","3019":"osh","3020":"ency","3021":"media","3022":"subscribe","3023":"éĤ","3024":"prin","3025":"hab","3026":"Per","3027":"Was","3028":"page","3029":"itor","3030":"towards","3031":"tried","3032":"enge","3033":"artment","3034":"vari","3035":"paper","3036":"picture","3037":"version","3038":"brought","3039":"ware","3040":"States","3041":"sich","3042":"ledge","3043":"percent","3044":"god","3045":"ec","3046":"Comm","3047":"decided","3048":"select","3049":"íķľ","3050":").","3051":"urity","3052":"further","3053":"comments","3054":"lement","3055":"dream","3056":"center","3057":"mi","3058":"cas","3059":"woman","3060":"road","3061":"fail","3062":"became","3063":"lus","3064":"ilities","3065":"ãģ¯","3066":"Co","3067":"manage","3068":"recogn","3069":"action","3070":"benef","3071":"earlier","3072":"×ľ","3073":"speed","3074":"ment","3075":"soci","3076":"shoot","3077":"ui","3078":"Ã¤","3079":"apply","3080":"vo","3081":"xim","3082":"cause","3083":"surpr","3084":"haben","3085":"DI","3086":"father","3087":"Next","3088":"YouTube","3089":"code","3090":"role","3091":"gress","3092":"green","3093":"ett","3094":"built","3095":"flow","3096":"base","3097":"training","3098":"round","3099":"Will","3100":"path","3101":"Ro","3102":"interested","3103":"ìĸ´","3104":"respect","3105":"changed","3106":"ission","3107":"student","3108":"ograph","3109":"approach","3110":"shows","3111":"å°±","3112":"tar","3113":"crit","3114":"glo","3115":"ìĬµëĭĪëĭ¤","3116":"dead","3117":"President","3118":"thous","3119":"bal","3120":"ster","3121":"ex","3122":"absolutely","3123":"mic","3124":"practice","3125":"quality","3126":"lower","3127":"ogle","3128":"separ","3129":"ball","3130":"medi","3131":"review","3132":"App","3133":"ok","3134":"âĢĭ","3135":"experien","3136":"concern","3137":"entially","3138":"more","3139":"Jo","3140":"apan","3141":"Ich","3142":"istic","3143":"fair","3144":"website","3145":"ires","3146":"By","3147":"travel","3148":"risk","3149":"mir","3150":"board","3151":"sen","3152":"parents","3153":"Wow","3154":"feed","3155":"save","3156":"serious","3157":"init","3158":"EL","3159":"undred","3160":"AS","3161":"van","3162":"orrow","3163":"worth","3164":"search","3165":"16","3166":"parts","3167":"ÑģÑĤÑĮ","3168":"compan","3169":"movie","3170":"method","3171":"ill","3172":"wish","3173":"dy","3174":"item","3175":"minus","3176":"anger","3177":"voice","3178":"skin","3179":"areas","3180":"eight","3181":"obs","3182":",","3183":"Ð°Ð¹","3184":"oil","3185":"cy","3186":"baby","3187":"sy","3188":"employ","3189":"Ke","3190":"places","3191":"fix","3192":"estÃ¡","3193":"ãģ¨","3194":"ived","3195":"lots","3196":"season","3197":"unk","3198":"alt","3199":"table","3200":"Ð¢","3201":"Ã¢","3202":"attention","3203":"ãģª","3204":"Her","3205":"age","3206":"pra","3207":"back","3208":"cil","3209":"network","3210":"rit","3211":"doc","3212":"aren","3213":"igen","3214":"ëĦ","3215":"Ø¯","3216":"ender","3217":"total","3218":"price","3219":"crazy","3220":"ìļ","3221":"iqu","3222":"though","3223":"You","3224":"Ùĩ","3225":"ãĤĵ","3226":"Ïħ","3227":"sat","3228":"bi","3229":"Die","3230":"sha","3231":"thanks","3232":"uh","3233":"stage","3234":"Ð°Ð¶","3235":"Fl","3236":"leav","3237":"boy","3238":"af","3239":"Ã¶n","3240":"Get","3241":"accept","3242":"enter","3243":"tur","3244":"siÄĻ","3245":"honest","3246":"ãĢĮ","3247":"sam","3248":"repl","3249":"ging","3250":"development","3251":"Act","3252":"ora","3253":"ãĢį","3254":"ä¾","3255":"knows","3256":"image","3257":"Lord","3258":"Ð¸ÑĤÑĮ","3259":"weeks","3260":"sex","3261":"Ķë","3262":"hundred","3263":"sounds","3264":"learned","3265":"bud","3266":"ÑģÑĤ","3267":"incred","3268":"âĻ","3269":"nos","3270":"drop","3271":"ben","3272":"Ðĺ","3273":"safe","3274":"ata","3275":"fuck","3276":"soci","3277":"dan","3278":"cross","3279":"10","3280":"mo","3281":"vert","3282":"17","3283":"zie","3284":"åķ","3285":"dom","3286":"Bo","3287":"setting","3288":"involved","3289":"arily","3290":"sind","3291":"sus","3292":"worry","3293":"eth","3294":"ê¹Į","3295":"sun","3296":"hier","3297":"certainly","3298":"oul","3299":"orts","3300":"Er","3301":"Um","3302":"caus","3303":"natural","3304":"Ã¼","3305":"cry","3306":"Sec","3307":"som","3308":"æ²","3309":"education","3310":"Ð°ÐµÑĤ","3311":"multip","3312":"alone","3313":"eye","3314":"rate","3315":"Europe","3316":"è¿","3317":"mon","3318":"fit","3319":"izing","3320":"pped","3321":"pressure","3322":"the","3323":"Ð¸Ñģ","3324":"ites","3325":"Af","3326":"reci","3327":"attle","3328":"services","3329":"Google","3330":"éģ","3331":"cases","3332":"drive","3333":"challeng","3334":"uz","3335":"Mo","3336":"ìľ¼ë","3337":"val","3338":"åĢĭ","3339":"fol","3340":"ì¢","3341":"ffic","3342":"ra","3343":"sin","3344":"blue","3345":"affect","3346":"mis","3347":"shot","3348":"Ð¾Ð±","3349":"asing","3350":"signific","3351":"Che","3352":"ê³","3353":"positive","3354":"ì£","3355":"wie","3356":"40","3357":"ording","3358":"From","3359":"êµ","3360":"brand","3361":"trust","3362":"ple","3363":"communic","3364":"weight","3365":"asking","3366":"tax","3367":"Japan","3368":"ãģŁ","3369":"íķĺ","3370":"ops","3371":"ÏĤ","3372":"putting","3373":"roll","3374":"America","3375":"reg","3376":"ŀ×","3377":"atures","3378":"ension","3379":"Somet","3380":"original","3381":"ping","3382":"ÅŁ","3383":"products","3384":"ãĥ¼","3385":"contact","3386":"olution","3387":"goal","3388":"pow","3389":"performance","3390":"blood","3391":"ators","3392":"Mich","3393":"temper","3394":"Dan","3395":"sugg","3396":"ÑĤÐ¸","3397":"imm","3398":"office","3399":"arri","3400":"comfort","3401":"ÐĶ","3402":"suggest","3403":"plat","3404":"Ĥĺ","3405":"19","3406":"om","3407":"seven","3408":"Cent","3409":"ille","3410":"concept","3411":"bag","3412":"Ã¼n","3413":"ively","3414":"div","3415":"mos","3416":"æī","3417":"feels","3418":"ir","3419":"akes","3420":"ley","3421":"particip","3422":"Ðļ","3423":"fl","3424":"just","3425":"sil","3426":"Pa","3427":"AL","3428":"gotta","3429":"fan","3430":"challenge","3431":"companies","3432":"People","3433":"</","3434":"Ð¾Ð·","3435":"pen","3436":"ising","3437":"aus","3438":"emic","3439":"amente","3440":"meeting","3441":"visit","3442":"supposed","3443":"Once","3444":"Ð´Ð°","3445":"orld","3446":"30","3447":"US","3448":"viol","3449":"notice","3450":"ÐĲ","3451":"han","3452":"ped","3453":"ìĺ","3454":"hh","3455":"trou","3456":"minute","3457":"Par","3458":"ray","3459":"tit","3460":"upd","3461":"block","3462":"due","3463":"aur","3464":"force","3465":"coun","3466":"âĢĶ","3467":"types","3468":"ë§","3469":"late","3470":"improve","3471":"ìĪ","3472":"ave","3473":"ules","3474":"cl","3475":"amed","3476":"awesome","3477":"Ok","3478":"vot","3479":"machine","3480":"following","3481":"measure","3482":"aciÃ³n","3483":"uel","3484":"chan","3485":"ability","3486":"tout","3487":"ideas","3488":"increase","3489":"ens","3490":"Ñħ","3491":"ëª","3492":"jest","3493":"Ðľ","3494":"truth","3495":"hy","3496":"spend","3497":"science","3498":"ete","3499":"14","3500":"episode","3501":"alg","3502":"ended","3503":"ãģĵ","3504":"ari","3505":"lla","3506":"fish","3507":"throw","3508":"mit","3509":"å¹","3510":"circ","3511":"Cal","3512":"tour","3513":"direction","3514":"noch","3515":"ÐµÐ²","3516":"Ã©n","3517":"countries","3518":"industry","3519":"iny","3520":"icle","3521":"feet","3522":"It","3523":"leaders","3524":"etzt","3525":"staff","3526":"çĶ","3527":"purp","3528":"ito","3529":"?!","3530":"Ja","3531":"store","3532":"etic","3533":"China","3534":"ëĲ","3535":"University","3536":"#","3537":"decision","3538":"achie","3539":"actual","3540":"uly","3541":"section","3542":"results","3543":"star","3544":"mist","3545":"ibly","3546":"dad","3547":"numbers","3548":"omb","3549":"èª","3550":"Spe","3551":"mer","3552":"25","3553":"autom","3554":"cold","3555":"Ø¨","3556":"Ħľ","3557":"ager","3558":"TV","3559":"Sie","3560":"Have","3561":"Å¼e","3562":"ugg","3563":"ained","3564":"upon","3565":"log","3566":"complete","3567":"brain","3568":"aging","3569":"Mus","3570":"over","3571":"easier","3572":"integr","3573":"mÃ¡s","3574":"turned","3575":"stri","3576":"ival","3577":"heav","3578":"TH","3579":"writing","3580":"ÑĢÐ°","3581":"åľ¨","3582":"å¤§","3583":"cla","3584":"ding","3585":"telling","3586":"Ð¸Ð´","3587":"icated","3588":"ä»¥","3589":"acht","3590":"ãģĤ","3591":"haps","3592":"Ste","3593":"resources","3594":"dann","3595":"party","3596":"ÏĦ","3597":"saf","3598":"ises","3599":"tre","3600":"oint","3601":"knowledge","3602":"anymore","3603":"fly","3604":"maint","3605":"Ð¸Ðº","3606":"åĳ","3607":"sell","3608":"laughs","3609":"York","3610":"bien","3611":"od","3612":"easily","3613":"range","3614":"option","3615":"Ø¹","3616":"appreci","3617":"ocr","3618":"determ","3619":"ÑĦ","3620":"meaning","3621":"site","3622":"disco","3623":"verage","3624":"lose","3625":"install","3626":"emot","3627":"antly","3628":"Ã¤t","3629":"tamb","3630":"War","3631":"Ho","3632":"Gen","3633":"emy","3634":"ÐµÐ·","3635":"Pol","3636":"message","3637":"note","3638":"ĮĢ","3639":"het","3640":"immedi","3641":"avo","3642":"books","3643":"becomes","3644":"resh","3645":"Ã¨s","3646":"asons","3647":"himself","3648":"uts","3649":"ju","3650":"aware","3651":"require","3652":"systems","3653":"Har","3654":"among","3655":"hom","3656":"breat","3657":"weird","3658":"ë¶","3659":"Î»","3660":"Ø©","3661":"iff","3662":"oring","3663":"platform","3664":"Take","3665":"helps","3666":"utions","3667":"forg","3668":"luck","3669":"English","3670":"web","3671":"negative","3672":"tut","3673":"above","3674":"ngth","3675":"ê±°","3676":"stories","3677":"load","3678":"background","3679":"switch","3680":"ga","3681":"princi","3682":"finan","3683":"various","3684":"lÃł","3685":"kinds","3686":"aining","3687":"nature","3688":"Ðŀ","3689":"cz","3690":"pray","3691":"gar","3692":"irm","3693":"&","3694":"ìĥ","3695":"ns","3696":"Rep","3697":"Fe","3698":"rev","3699":"rand","3700":"likely","3701":"understanding","3702":"Ä±r","3703":"ãģĭ","3704":"fal","3705":"13","3706":"ÑĨÐ¸","3707":"sud","3708":"brother","3709":"plant","3710":"throughout","3711":"wise","3712":"pre","3713":"culture","3714":"Ùħ","3715":"wonderful","3716":"ah","3717":"pper","3718":"sold","3719":"starts","3720":"written","3721":"Î¯","3722":"ni","3723":"×Ķ×","3724":"Dav","3725":"ult","3726":"arm","3727":"rock","3728":"wear","3729":"ëį°","3730":"ano","3731":"rag","3732":"square","3733":"Ð°Ð½Ð¸","3734":"cast","3735":"lebr","3736":"literally","3737":"played","3738":"heat","3739":"onse","3740":"rict","3741":"insp","3742":"ids","3743":"popular","3744":"ëıĦ","3745":"catch","3746":"mount","3747":"jud","3748":"What","3749":"ÐµÐ±","3750":"RA","3751":"aud","3752":"ÐºÐ¾","3753":"surface","3754":"conv","3755":"pieces","3756":"Oh","3757":"æĢ","3758":"style","3759":"pping","3760":"reading","3761":"conversation","3762":"Ð¾Ð¿","3763":"ä¾Ĩ","3764":"Again","3765":"bank","3766":"time","3767":"ÑĥÑĤ","3768":"erve","3769":"Great","3770":"capt","3771":"Ð°Ð±","3772":"ays","3773":"Fin","3774":"ification","3775":"Ã¤r","3776":"Ð°Ñİ","3777":"egg","3778":"Wel","3779":"target","3780":"ula","3781":"ches","3782":"ani","3783":"OO","3784":"icious","3785":"now","3786":"Ïĥ","3787":"board","3788":"gente","3789":"dro","3790":"Et","3791":"din","3792":"cos","3793":"author","3794":"Ø³","3795":"och","3796":"email","3797":"spirit","3798":"sitting","3799":"mas","3800":"strength","3801":"bigger","3802":"Wait","3803":"mat","3804":"police","3805":"ressed","3806":"waiting","3807":"ishing","3808":"dollars","3809":"hood","3810":"ss","3811":"imagine","3812":"ini","3813":"mes","3814":"dise","3815":"idge","3816":"abor","3817":"pet","3818":"hop","3819":"King","3820":"computer","3821":"gold","3822":"nu","3823":"fing","3824":"),","3825":"security","3826":"ruction","3827":"solution","3828":"ext","3829":"patter","3830":"icken","3831":"ured","3832":"standard","3833":"ìĭľ","3834":"double","3835":"Î·","3836":"wife","3837":"isa","3838":"directly","3839":"aced","3840":"bunch","3841":"Â¿","3842":"Ð°Ð»ÑĮ","3843":"regard","3844":"sweet","3845":"unique","3846":"âĻ«","3847":"train","3848":"Germ","3849":"Î¬","3850":"RE","3851":"behav","3852":"pred","3853":"ìĥ","3854":"set","3855":"description","3856":"Ã©e","3857":"cat","3858":"åĵ","3859":"college","3860":"ìĽ","3861":"application","3862":"Sen","3863":"ask","3864":"cred","3865":"ublic","3866":"multiple","3867":"ni","3868":"president","3869":"added","3870":"rob","3871":"aqui","3872":"hosp","3873":"tools","3874":"gun","3875":"basic","3876":"lines","3877":"structure","3878":"Russ","3879":"totally","3880":"biggest","3881":"een","3882":"arg","3883":"×ľ","3884":"park","3885":"Des","3886":"celebr","3887":"fait","3888":"ÐµÐ½ÑĮ","3889":"suff","3890":"regular","3891":"¨ë","3892":"mine","3893":"Kore","3894":"previous","3895":"pi","3896":"seg","3897":"policy","3898":"ÐºÐ¾","3899":"Trump","3900":"vacc","3901":"Ã³w","3902":"Sy","3903":"Ð¸Ñĩ","3904":"itter","3905":"political","3906":"ras","3907":"als","3908":"ÐµÐ»ÑĮ","3909":"shape","3910":"anz","3911":"onto","3912":"arch","3913":"amb","3914":"agram","3915":"Sm","3916":"ctions","3917":"join","3918":"bor","3919":"åĽ","3920":"frame","3921":"łĩ","3922":"choice","3923":"à¯ģ","3924":"ÑĥÑİ","3925":"Cor","3926":"Sw","3927":"IT","3928":"tend","3929":"Ear","3930":"tor","3931":"events","3932":"claim","3933":"Da","3934":"Mark","3935":"groups","3936":"eating","3937":"World","3938":"recently","3939":"taste","3940":"surv","3941":"à¤","3942":"skills","3943":"Ð¸Ð·","3944":"itted","3945":"shop","3946":"ìĿ´ì","3947":"estab","3948":"ëĤĺ","3949":"seconds","3950":"Those","3951":"Ent","3952":"ìĦ","3953":"erson","3954":"town","3955":"cand","3956":"options","3957":"ing","3958":"VID","3959":"encour","3960":"rÃ©","3961":"âĻª","3962":"entre","3963":"movement","3964":"Ben","3965":"birth","3966":"whe","3967":"hang","3968":"Em","3969":"ige","3970":"roll","3971":"unf","3972":"ìĤ","3973":"rid","3974":"spread","3975":"host","3976":"ald","3977":"Ed","3978":"consum","3979":"UN","3980":"opin","3981":"itar","3982":"Med","3983":"subject","3984":"pal","3985":"carry","3986":"agree","3987":"While","3988":"career","3989":"scient","3990":"sudden","3991":"file","3992":"zi","3993":"except","3994":"éº","3995":"potential","3996":"Another","3997":"complex","3998":"Sim","3999":"endo","4000":"rais","4001":"physical","4002":"date","4003":"aker","4004":"Col","4005":"powerful","4006":"member","4007":"rap","4008":"spot","4009":"source","4010":"fem","4011":"Ã©m","4012":"emp","4013":"ji","4014":"iety","4015":"influ","4016":"dry","4017":"lock","4018":"zero","4019":"Uh","4020":"rout","4021":"porque","4022":"24","4023":"tal","4024":"folks","4025":"launch","4026":"compon","4027":"Welcome","4028":"kann","4029":"Ã¤n","4030":"ÑįÑĤ","4031":"ees","4032":"ÙĪ","4033":"anyway","4034":"audience","4035":"äºº","4036":"slight","4037":"ona","4038":"ur","4039":"relig","4040":"extrem","4041":"Ä±z","4042":"Ma","4043":"Î¼","4044":"Ã¶","4045":"allows","4046":"fat","4047":"Face","4048":"national","4049":"interview","4050":"Mc","4051":"Ã©t","4052":"cute","4053":"ela","4054":"secret","4055":"West","4056":"Dep","4057":"exerc","4058":"histor","4059":"prior","4060":"60","4061":"ava","4062":"acher","4063":"yond","4064":"Ha","4065":"este","4066":"inary","4067":"North","4068":"onst","4069":"smart","4070":"ams","4071":"Ð°Ð»Ð¸","4072":"dar","4073":"ered","4074":"funny","4075":"Ob","4076":"Black","4077":"related","4078":"Bu","4079":"somewhere","4080":"Rem","4081":"nes","4082":"mente","4083":"Really","4084":"creating","4085":"famil","4086":"society","4087":"gel","4088":"transform","4089":"Äĥ","4090":"include","4091":"hol","4092":"like","4093":"ko","4094":"airs","4095":"Ð¿Ð¾Ð´","4096":"perspect","4097":"bes","4098":"particularly","4099":"showing","4100":"Part","4101":"qual","4102":"lock","4103":"reality","4104":"hold","4105":"iction","4106":"oon","4107":"vir","4108":"ãģ«","4109":"itary","4110":"drug","4111":"feature","4112":"reasons","4113":"×©","4114":"wrote","4115":"fant","4116":"band","4117":"Ùĥ","4118":"ena","4119":"key","4120":"earth","4121":"dom","4122":"features","4123":"floor","4124":"speaking","4125":"tip","4126":"Aust","4127":"stock","4128":"church","4129":"rac","4130":"ìľ¼ë¡ľ","4131":"à¸Ļ","4132":"ãĤĮ","4133":"ky","4134":"response","4135":"ÛĮ","4136":"ulations","4137":"slide","4138":"gradu","4139":"cious","4140":"meant","4141":"==","4142":"×Ĳ×","4143":"ãħ","4144":"kinda","4145":"scene","4146":"muit","4147":"ê°Ģ","4148":"rast","4149":"rest","4150":"players","4151":"wa","4152":"broad","4153":"tomorrow","4154":"ocol","4155":"ÑģÐ²","4156":"Bar","4157":"Ä±k","4158":"sea","4159":"remove","4160":"remind","4161":"Ð¾Ð¼Ñĥ","4162":"Since","4163":"avec","4164":"cell","4165":"Ð¸Ñħ","4166":"document","4167":"ê·¸ëŁ","4168":"neigh","4169":"beat","4170":"pÃ¥","4171":"aspect","4172":"ded","4173":"lished","4174":"ils","4175":"ourselves","4176":"uce","4177":"hey","4178":"Ð¿ÑĢÐ¾","4179":"enty","4180":"associ","4181":"ados","4182":"umber","4183":"]","4184":"éĤ£","4185":"nov","4186":"ìĻ","4187":"ÑĥÑĩ","4188":"condition","4189":"ëĬĶëį°","4190":"values","4191":"scen","4192":"minist","4193":"cast","4194":"growing","4195":"user","4196":"respond","4197":"lim","4198":"Ã©r","4199":"ym","4200":"çľĭ","4201":"oses","4202":"sych","4203":"ÑĢÐ°Ð·","4204":"appear","4205":"progress","4206":"ength","4207":"jak","4208":"Dis","4209":"patients","4210":"Ser","4211":"gas","4212":"Ã¨re","4213":"ìĸ´ìļĶ","4214":"reci","4215":"ìĿ¸","4216":"sca","4217":"epend","4218":"ÑģÐº","4219":"Ð°Ð¿","4220":"batter","4221":"veh","4222":"ðŁ","4223":"accom","4224":"beat","4225":"paint","4226":"contrib","4227":"sad","4228":"Æ°","4229":"ales","4230":"tree","4231":"ba","4232":"born","4233":"iced","4234":"à®ķ","4235":"band","4236":"mechan","4237":"Det","4238":"capital","4239":"deliver","4240":"fear","4241":"ŀĺ","4242":"South","4243":"bought","4244":"stress","4245":"vor","4246":"??","4247":"ih","4248":"ìķ¼","4249":"era","4250":"ìĿ´ë","4251":"Ð°Ñı","4252":"isions","4253":"ivity","4254":"helped","4255":"assist","4256":"player","4257":"ran","4258":"immediately","4259":"moved","4260":"cie","4261":"ê±","4262":"announ","4263":"å¿","4264":"ìŀĲ","4265":"production","4266":"summer","4267":"tun","4268":"programs","4269":"GH","4270":"aling","4271":"ira","4272":"eless","4273":".)","4274":"average","4275":"è¦ģ","4276":"glass","4277":"oman","4278":"ifically","4279":"ëĭ¤","4280":"Cong","4281":"Ver","4282":"trick","4283":"began","4284":"vill","4285":"ê±°","4286":"how","4287":"æŃ","4288":"till","4289":"90","4290":"bert","4291":"ê¸","4292":"temperature","4293":"Ã²","4294":"à¹Ī","4295":"graph","4296":"ê·¸","4297":"rot","4298":"mob","4299":"AY","4300":"ael","4301":"repe","4302":"device","4303":"199","4304":"tele","4305":"kept","4306":"pa","4307":"æĸ","4308":"verse","4309":"stream","4310":"ÐµÑĩ","4311":"ession","4312":"strugg","4313":"zz","4314":"degree","4315":"helping","4316":"smell","4317":"perhaps","4318":"pro","4319":"context","4320":"ik","4321":"Ð¿ÐµÑĢ","4322":"calcul","4323":"éº¼","4324":"bing","4325":"realize","4326":"lam","4327":"Char","4328":"yt","4329":"ìĿ´ì","4330":"danger","4331":"Im","4332":"aa","4333":"loved","4334":"purpose","4335":"finished","4336":"peace","4337":"ot","4338":"global","4339":"ÏĢ","4340":"aber","4341":"ĸĪ","4342":"characters","4343":"nur","4344":"damage","4345":"emer","4346":"prec","4347":"Wir","4348":"instit","4349":"ĳ×","4350":"allowed","4351":"bon","4352":"tod","4353":"ÐµÐ³Ð¾","4354":"jetzt","4355":"medic","4356":"smaller","4357":"ceed","4358":"levels","4359":"intell","4360":"We","4361":"sem","4362":"currently","4363":"modern","4364":"contract","4365":"details","4366":"ortunately","4367":"OS","4368":"states","4369":"adjust","4370":"antage","4371":"ez","4372":"Very","4373":"scale","4374":"release","4375":"faz","4376":"ic","4377":"itude","4378":"AC","4379":"Pat","4380":"iden","4381":"ŃĲ","4382":"prefer","4383":"ological","4384":"Facebook","4385":"ê°Ļ","4386":"..","4387":"Make","4388":"ÐºÐ¾ÑĤÐ¾ÑĢ","4389":"David","4390":"Afric","4391":"mode","4392":"City","4393":"shall","4394":"ÑĦ","4395":"imin","4396":"Ð·Ð°","4397":"rom","4398":"ua","4399":"beyond","4400":"distrib","4401":"ÐºÑĥ","4402":"Does","4403":"vict","4404":"rate","4405":"vai","4406":"successful","4407":"hous","4408":"aha","4409":"ests","4410":"Est","4411":"discover","4412":"therefore","4413":"cha","4414":"cup","4415":"population","4416":"Il","4417":"sc","4418":"spent","4419":"rel","4420":"useful","4421":"tab","4422":"æĿ","4423":"Å","4424":"ìłľ","4425":"conse","4426":"quant","4427":"aya","4428":"bon","4429":"åı¯","4430":"Chin","4431":"ê²ĥ","4432":"ounds","4433":"ÐµÑĪ","4434":"elle","4435":"ice","4436":"21","4437":"kick","4438":"ä¸ĭ","4439":"steps","4440":"tonight","4441":"Ð½ÑĭÐ¹","4442":"rench","4443":".'","4444":"grab","4445":"implement","4446":"ìĪĺ","4447":"mission","4448":"clearly","4449":"appreciate","4450":"èĢ","4451":"fresh","4452":"arm","4453":"Two","4454":"exec","4455":"projects","4456":"communities","4457":"rible","4458":"region","4459":"frequ","4460":"roy","4461":"however","4462":"partners","4463":"anc","4464":"minim","4465":"lat","4466":"families","4467":"evidence","4468":"pun","4469":"raft","4470":"loss","4471":"map","4472":"anybody","4473":"changing","4474":"rules","4475":"organization","4476":"essentially","4477":"Red","4478":"element","4479":"æĹ","4480":"virt","4481":"rat","4482":"print","4483":"ander","4484":"aren","4485":"emos","4486":"Î¿Ïħ","4487":"conditions","4488":"abe","4489":"dance","4490":"Ð¸ÑĢ","4491":"dos","4492":"Ð¾Ñĩ","4493":"Que","4494":"walking","4495":"tro","4496":"id","4497":"additional","4498":"fully","4499":"fans","4500":"addition","4501":"liked","4502":"Ã¼ber","4503":"bow","4504":"di","4505":"master","4506":"off","4507":"):","4508":"mber","4509":"ë¬","4510":"å¯","4511":"åĪ°","4512":"lause","4513":"oder","4514":"safety","4515":"react","4516":"à®¿","4517":"bt","4518":"disapp","4519":"girls","4520":"St","4521":"Ang","4522":"faith","4523":"turns","4524":"tight","4525":"mouth","4526":"ami","4527":"zer","4528":"weap","4529":"Ð±ÑĥÐ´","4530":"hospital","4531":"raid","4532":"micro","4533":"State","4534":"Most","4535":"agn","4536":"decide","4537":"patient","4538":"corner","4539":"died","4540":"No","4541":"Stud","4542":"rend","4543":"empt","4544":"lie","4545":"lif","4546":"Before","4547":"tÃ³","4548":"Super","4549":"bell","4550":"60","4551":"private","4552":"Paul","4553":"gib","4554":"agre","4555":"´ìĦľ","4556":"sig","4557":"investig","4558":"ÑıÑĤ","4559":"ening","4560":"distance","4561":"warm","4562":"digital","4563":"å¾Ī","4564":"iner","4565":"pand","4566":"COVID","4567":"Ð³Ð¾","4568":"gn","4569":"race","4570":"proud","4571":"teaching","4572":"ÑĤÐ¾","4573":"ìŀ¥","4574":"Allah","4575":"In","4576":"wood","4577":"colors","4578":"wird","4579":"uj","4580":"idad","4581":"customers","4582":"connected","4583":"layer","4584":"achieve","4585":"perspective","4586":"Coll","4587":"ÙĤ","4588":"cloud","4589":"!!!","4590":"ended","4591":"łĩê²Į","4592":"management","4593":"rich","4594":"subst","4595":"remo","4596":"serve","4597":"resist","4598":"thoughts","4599":"growth","4600":"iliar","4601":"rights","4602":"charge","4603":"consist","4604":"werden","4605":"emb","4606":"andom","4607":"hurt","4608":"kan","4609":"ias","4610":"Ð»Ð¾","4611":"shit","4612":"beg","4613":"received","4614":"itation","4615":"meat","4616":"isso","4617":"ffee","4618":"famous","4619":"comfortable","4620":"IL","4621":"Bye","4622":"èªª","4623":"åĢĳ","4624":"othes","4625":"medical","4626":"enjoyed","4627":"healthy","4628":"wy","4629":"cies","4630":"effort","4631":"doctor","4632":"military","4633":"LAU","4634":"gro","4635":"battle","4636":"fed","4637":"capac","4638":"afraid","4639":"ivil","4640":"Ð²ÑģÐµ","4641":"length","4642":"ysis","4643":"bei","4644":"¤í","4645":"organiz","4646":"org","4647":"inc","4648":"interact","4649":"Chinese","4650":"according","4651":"incredible","4652":"killed","4653":"daughter","4654":"ÏĢ","4655":"ÑĭÐ²","4656":"schools","4657":"Â«","4658":"ller","4659":"shouldn","4660":"nal","4661":"cris","4662":"chicken","4663":"faster","4664":"extremely","4665":"oppos","4666":"nous","4667":"+","4668":"ria","4669":"financial","4670":"exciting","4671":"journey","4672":"×Ļ×Ŀ","4673":"łë","4674":"display","4675":"memory","4676":"heavy","4677":"Ð½Ðµ","4678":"passed","4679":"ÑĢÐ¸","4680":"iles","4681":"psych","4682":"specifically","4683":"engage","4684":"led","4685":"orge","4686":"Dem","4687":"order","4688":"80","4689":"cream","4690":"esterday","4691":"edge","4692":"Ð¿Ð¾Ð»","4693":"bull","4694":"indic","4695":"ktÃ³","4696":"hopefully","4697":"uments","4698":"agen","4699":"Ð½Ð¾Ð³Ð¾","4700":"hate","4701":"cht","4702":"80","4703":"effic","4704":"ì§Ģ","4705":"internet","4706":"budget","4707":"property","4708":"iday","4709":"ìļ","4710":"Ð¼Ð¾Ð¶","4711":"ola","4712":"showed","4713":"Mon","4714":"thousand","4715":"AP","4716":"poor","4717":"used","4718":"Jack","4719":"sÃ¥","4720":"ĥ½","4721":"esc","4722":"software","4723":"quar","4724":"Ø¨","4725":"necessarily","4726":"omen","4727":"iy","4728":"eventually","4729":"ished","4730":"bright","4731":"ED","4732":"spl","4733":"demand","4734":"threat","4735":"sir","4736":"released","4737":"cket","4738":"âĢ«","4739":"required","4740":"vote","4741":"ì¹","4742":"à®¤","4743":"developed","4744":"ìĤ¬","4745":"atory","4746":"dir","4747":"cape","4748":"slightly","4749":"Ã¬","4750":"à¹ī","4751":"reet","4752":"disease","4753":"court","4754":"items","4755":"Earth","4756":"ÑģÑĤÐ¸","4757":"Ð¶Ðµ","4758":"ì²","4759":"challenges","4760":"Brit","4761":"designed","4762":"12","4763":"hearing","4764":"listening","4765":"zo","4766":"ÑģÐ»","4767":"ãģ§ãģĻ","4768":"pero","4769":"wearing","4770":"plic","4771":"chem","4772":"balance","4773":"ba","4774":"receive","4775":"ima","4776":"significant","4777":"Ð¼Ñĭ","4778":"anch","4779":"Cr","4780":"Coun","4781":"ê¸Ī","4782":"jobs","4783":"official","4784":"perm","4785":"oms","4786":"opportunities","4787":"overall","4788":"hus","4789":"odes","4790":"nation","4791":"Reg","4792":"ord","4793":"restaur","4794":"ìĨ","4795":"mel","4796":"vin","4797":"wenn","4798":"kÃ¶n","4799":"æĥ","4800":"opinion","4801":"ãĤĤ","4802":"è¬","4803":"Sometimes","4804":"çĤ","4805":"ÑīÐµ","4806":"asc","4807":"OU","4808":"2020","4809":"delicious","4810":"iger","4811":"ìķĪ","4812":"ole","4813":"handle","4814":"cit","4815":"íķľ","4816":"fÃ¶r","4817":"ooth","4818":"necessary","4819":"independ","4820":"æĦ","4821":"isten","4822":"ham","4823":"Ã©t","4824":"ãĥ³","4825":"multi","4826":"ÏĮ","4827":"?)","4828":"campus","4829":"topic","4830":"rain","4831":"panel","4832":"Sam","4833":"larger","4834":"audience","4835":"paid","4836":"economic","4837":"olt","4838":"street","4839":"Cont","4840":"driving","4841":"ìłĢ","4842":"hay","4843":"professional","4844":"Intern","4845":"å¸","4846":"input","4847":"categ","4848":"cro","4849":"ll","4850":"ET","4851":"ÑĭÐ¹","4852":"**","4853":"Ze","4854":"BLE","4855":"ì¤","4856":"rees","4857":"Ð¯","4858":"ede","4859":"iert","4860":"fold","4861":"dur","4862":"National","4863":"ìĸ´ë","4864":"anced","4865":"faire","4866":"uted","4867":"king","4868":"wild","4869":"oi","4870":"upbeat","4871":"prevent","4872":"ius","4873":"Ã¨","4874":"wide","4875":"ring","4876":"title","4877":"standing","4878":"although","4879":"hi","4880":"sauce","4881":"sides","4882":"animals","4883":"iling","4884":"atives","4885":"ìĹĲìĦľ","4886":"Over","4887":"desp","4888":"considered","4889":"aries","4890":"iers","4891":"einen","4892":"sister","4893":"ëķ","4894":"Sure","4895":"ãĤĭ","4896":"riend","4897":"aign","4898":"shown","4899":"sac","4900":"sont","4901":"century","4902":"tien","4903":"Îº","4904":"ST","4905":"åķĬ","4906":"older","4907":"iem","4908":"truly","4909":"Si","4910":"window","4911":"iques","4912":"ario","4913":"æ²Ĵ","4914":"location","4915":"Îº","4916":"ìľ","4917":"vi","4918":"ague","4919":"Sorry","4920":"disp","4921":"hell","4922":"Ãī","4923":"trade","4924":"critical","4925":"ê±","4926":"named","4927":"prepared","4928":"House","4929":"alu","4930":"tough","4931":"trip","4932":"sand","4933":"cel","4934":"Ã¼z","4935":"Put","4936":"apart","4937":"isf","4938":"vis","4939":"libr","4940":"aven","4941":"vie","4942":"effective","4943":"à¸²","4944":"magn","4945":"muito","4946":"êµ","4947":"hal","4948":"limit","4949":"nine","4950":"willing","4951":"Ä±ÅŁ","4952":"sp","4953":"ÐµÐ³","4954":"hi","4955":"alt","4956":"Jan","4957":"origin","4958":"Us","4959":"elements","4960":"uses","4961":"helpful","4962":"flat","4963":"familiar","4964":"Park","4965":"core","4966":"closer","4967":"active","4968":"administ","4969":"CE","4970":"Ð½ÑĭÐµ","4971":"çĦ","4972":"relative","4973":"mental","4974":"random","4975":"partner","4976":"util","4977":"phone","4978":"rule","4979":"ww","4980":"ìłķ","4981":"schon","4982":"coffee","4983":"HA","4984":"connection","4985":"unit","4986":"laughing","4987":"log","4988":"appl","4989":"Ð»Ð°","4990":"usic","4991":"Bra","4992":"anywhere","4993":"AUDI","4994":"separate","4995":"box","4996":"divid","4997":"testing","4998":"sick","4999":"weren","5000":"ä»ĸ","5001":"×ľ×","5002":"advantage","5003":"transfer","5004":"'.","5005":"ë¹","5006":"finding","5007":"Ð½Ð¾Ð¹","5008":"ì¢ĭ","5009":"fort","5010":"economy","5011":"lack","5012":"leaving","5013":"dim","5014":"åİ","5015":"Res","5016":"ØŃ","5017":"discussion","5018":"ÐµÐ¿","5019":"ges","5020":"duct","5021":"chain","5022":"users","5023":"ech","5024":"ÅĤa","5025":"dish","5026":"careful","5027":"teacher","5028":"optim","5029":"flu","5030":"atically","5031":"reflect","5032":"treatment","5033":"eed","5034":"iÄĻ","5035":"Ã¹","5036":"à®¾","5037":"equip","5038":"planning","5039":"solve","5040":"ãģĿ","5041":"Tom","5042":"avoid","5043":"pou","5044":"greater","5045":"lin","5046":"OL","5047":"Lu","5048":"More","5049":"attract","5050":"Ãªn","5051":"una","5052":"photo","5053":"eration","5054":"planet","5055":"copy","5056":"visual","5057":"iring","5058":"international","5059":"laughing","5060":"thick","5061":"holding","5062":"bringing","5063":"letter","5064":"burn","5065":"effects","5066":"itÃ©","5067":"ours","5068":"OT","5069":"Ãªme","5070":"School","5071":"×ķ×ª","5072":"ropri","5073":"lig","5074":"Î±Î¹","5075":"adult","5076":"sugar","5077":"ride","5078":"highlight","5079":"nobody","5080":"21","5081":"chat","5082":"Ð¿ÑĢÐ¸","5083":"innov","5084":"ungen","5085":"attach","5086":"edom","5087":"åĬ","5088":"yl","5089":"legal","5090":"rice","5091":"collabor","5092":"king","5093":"down","5094":"æĻ","5095":"ãĤĬ","5096":"ih","5097":"Ac","5098":"ously","5099":"rap","5100":"solid","5101":"generally","5102":"pattern","5103":"ali","5104":"à¸Ń","5105":"transl","5106":"inter","5107":"ault","5108":"ë¨","5109":"express","5110":"examples","5111":"chose","5112":"tells","5113":"ÃŃs","5114":"aint","5115":"Tell","5116":"Michael","5117":"æ¨","5118":"Number","5119":"tap","5120":"experiment","5121":"benefit","5122":"ì°","5123":"sequ","5124":"expensive","5125":"generation","5126":"Many","5127":"adding","5128":"kil","5129":"campaign","5130":"Ant","5131":"raw","5132":"ommen","5133":"soul","5134":"jo","5135":"Actually","5136":"amm","5137":"ê²ł","5138":"maxim","5139":"salt","5140":"cru","5141":"calling","5142":"ãģĮ","5143":"basis","5144":"ban","5145":"keeping","5146":"Mor","5147":"eds","5148":"ìĨ","5149":"todo","5150":"Ð°Ð¼Ð¸","5151":"Ð½Ñı","5152":"lived","5153":"Du","5154":"ãĤī","5155":"å®¶","5156":"force","5157":"å¹´","5158":"ference","5159":"ala","5160":"occur","5161":"sk","5162":"recent","5163":"cars","5164":"traditional","5165":"entle","5166":"²Ī","5167":"held","5168":"nach","5169":"Center","5170":"eren","5171":"bin","5172":"Ùģ","5173":"comme","5174":"reve","5175":"ìĺ¤","5176":"expected","5177":"abil","5178":"focused","5179":"ov","5180":"iP","5181":"orial","5182":"iro","5183":"etc","5184":"aming","5185":"Son","5186":"yesterday","5187":"strate","5188":"ÑĨ","5189":"ëı","5190":"pes","5191":"activity","5192":"advice","5193":"opening","5194":"fin","5195":"rela","5196":"éĸ","5197":"instance","5198":"Everyone","5199":"bl","5200":"pen","5201":"vision","5202":"Alex","5203":"iforn","5204":"tick","5205":"He","5206":"strategy","5207":"kom","5208":"PE","5209":"Gl","5210":"electric","5211":"15","5212":"daily","5213":"husband","5214":"station","5215":"analysis","5216":"ynam","5217":"attempt","5218":"billion","5219":"vant","5220":"forth","5221":"math","5222":"aly","5223":"behavior","5224":"Mas","5225":"kan","5226":"Day","5227":"bless","5228":"gut","5229":"High","5230":"ox","5231":"dress","5232":"jed","5233":"è¯","5234":"åĸ","5235":"experiences","5236":"ista","5237":"fighting","5238":"å·","5239":"ÑģÐº","5240":"mostly","5241":"ause","5242":"pictures","5243":"ÐµÐ½ÑĤ","5244":"mad","5245":"models","5246":"ÑĪÐµ","5247":"Count","5248":"ÅĦ","5249":"ÅĤo","5250":"ept","5251":"OM","5252":"AN","5253":"trouble","5254":"40","5255":"bird","5256":"ulate","5257":"mur","5258":"produce","5259":"married","5260":"bit","5261":"theory","5262":"íĺ","5263":"leader","5264":"Last","5265":"AA","5266":"èµ","5267":"images","5268":"expand","5269":"Por","5270":"purch","5271":"San","5272":"Christmas","5273":"Austral","5274":"wid","5275":"Miss","5276":"knowing","5277":"ze","5278":"ship","5279":"ku","5280":"ÑħÐ¾Ð´","5281":"Instagram","5282":"India","5283":"esta","5284":"Californ","5285":"70","5286":"drag","5287":"brush","5288":"names","5289":"And","5290":"yo","5291":"illa","5292":"sched","5293":"destroy","5294":"year","5295":"vamos","5296":"ÙĦ","5297":"Ã§a","5298":"forgot","5299":"Ð¸Ðµ","5300":"raise","5301":"reme","5302":"íķ´","5303":"Give","5304":"contain","5305":"rab","5306":"gift","5307":"ÑģÐ¿","5308":"request","5309":"shut","5310":"degrees","5311":"benefits","5312":"ÑĭÐµ","5313":"studies","5314":"ends","5315":"everywhere","5316":"hero","5317":"oph","5318":"erry","5319":"materials","5320":"ened","5321":"NA","5322":"åį","5323":"muy","5324":"worse","5325":"ä»Ģ","5326":"Mad","5327":"decisions","5328":"ione","5329":"foreign","5330":"laughter","5331":"iber","5332":"ÐµÐ½Ð¸Ñı","5333":"ãħĭ","5334":"realized","5335":"ign","5336":"weak","5337":"Î¼","5338":"scared","5339":"assum","5340":"AK","5341":"ï¿","5342":"ï¿½","5343":"covered","5344":"Sat","5345":"Ð¾Ð½","5346":"individuals","5347":"compared","5348":"11","5349":"Add","5350":"icles","5351":"cert","5352":"rar","5353":"brief","5354":"activities","5355":"fab","5356":"bar","5357":"ast","5358":"Other","5359":"classes","5360":"og","5361":"missing","5362":"ãģł","5363":"éĿ","5364":"wers","5365":"×©","5366":"introduce","5367":"equation","5368":"ãģ¾ãģĻ","5369":"nom","5370":"painting","5371":"ushing","5372":"AP","5373":"encourage","5374":"ship","5375":"ittee","5376":"iverse","5377":"ota","5378":"nam","5379":"ãĥ»","5380":"exercise","5381":"ÐŃ","5382":"nas","5383":"thousands","5384":"California","5385":"ses","5386":"row","5387":"ŀĪ","5388":"pandemic","5389":"skill","5390":"bel","5391":"director","5392":"milk","5393":"nut","5394":"motion","5395":"closed","5396":"è¨","5397":"credit","5398":"ahr","5399":"cheese","5400":"altern","5401":"imately","5402":"sust","5403":"Tra","5404":"glad","5405":"highly","5406":"wa","5407":"reduce","5408":"ble","5409":"ador","5410":"inated","5411":"iones","5412":"cient","5413":"depending","5414":"sharing","5415":"caught","5416":"rael","5417":"mehr","5418":"passion","5419":"çĽ","5420":"ru","5421":"farm","5422":"TI","5423":"aves","5424":"Rob","5425":"Bro","5426":"motiv","5427":"retch","5428":"rupt","5429":"Big","5430":"alle","5431":"ett","5432":"ubs","5433":"Japanese","5434":"Hall","5435":"Ð¸Ð»Ð¸","5436":"AUDIBLE","5437":"ç¬","5438":"cells","5439":"ika","5440":"eline","5441":"iler","5442":"ì£","5443":"sky","5444":"INAUDIBLE","5445":"ende","5446":"apter","5447":"pin","5448":"gather","5449":"hol","5450":"lection","5451":"syn","5452":"plug","5453":"round","5454":"university","5455":"hib","5456":"fantastic","5457":"kn","5458":"hole","5459":"Remember","5460":"inct","5461":"aks","5462":"CH","5463":"broken","5464":"strateg","5465":"alive","5466":"tank","5467":"cart","5468":"rated","5469":"rie","5470":"Step","5471":"Everything","5472":"bound","5473":"sobre","5474":"customer","5475":"¡Į","5476":"urg","5477":"Bill","5478":"La","5479":"what","5480":"reaction","5481":"session","5482":"plans","5483":"ìĿ´ëłĩê²Į","5484":"download","5485":"ìĻ","5486":"uer","5487":"cab","5488":"instr","5489":"ifying","5490":"Nice","5491":"teams","5492":"Ä±l","5493":"goals","5494":"isch","5495":"transport","5496":"animal","5497":"costs","5498":"calls","5499":"sehr","5500":"ìĪ","5501":"rian","5502":"dial","5503":"weather","5504":"à¹Ģ","5505":"Ð²Ð¾ÑĤ","5506":"Play","5507":"shared","5508":"smooth","5509":"aba","5510":"leaves","5511":"à®©","5512":"concent","5513":"shift","5514":"ëĲĺ","5515":"Govern","5516":"demonst","5517":"butter","5518":"ìĹ¬","5519":"satisf","5520":"Īë¬","5521":"recognize","5522":"French","5523":"volume","5524":"Ã¤nd","5525":"ÑĥÐ¼","5526":"ì§Ħ","5527":"Keep","5528":"owa","5529":"ipped","5530":"ÑģÑĤÑĢ","5531":"detect","5532":"Ïĥ","5533":"lift","5534":"clothes","5535":"Stop","5536":"Ãµ","5537":"met","5538":"clin","5539":"arr","5540":"friend","5541":"stuck","5542":"Ye","5543":"hand","5544":"uma","5545":"scri","5546":"fucking","5547":"ctors","5548":"×ª","5549":"joining","5550":"cette","5551":"Ø£","5552":"White","5553":"ihr","5554":"ÎŃ","5555":"ãģŃ","5556":"included","5557":"esso","5558":"acad","5559":"bum","5560":"sab","5561":"Ð´Ð»Ñı","5562":"è¿Ļ","5563":"ufact","5564":"Republic","5565":"rim","5566":"yellow","5567":"limited","5568":"TER","5569":"Ty","5570":"notes","5571":"vest","5572":"Ð¸Ð·","5573":"aled","5574":"phase","5575":"anda","5576":"Mom","5577":"RI","5578":"immer","5579":"mal","5580":"inj","5581":"yang","5582":"udible","5583":"Ð°Ð³","5584":"sett","5585":"magic","5586":"ensure","5587":"spring","5588":"shock","5589":"wheel","5590":"Ð¾Ð³Ð´Ð°","5591":"ãĤĪ","5592":"cancer","5593":"root","5594":"ÐĲ","5595":"gency","5596":"ëį","5597":"ii","5598":"output","5599":"commit","5600":"workers","5601":"ìķĦìļĶ","5602":"ÑģÐ°Ð¼","5603":"vey","5604":"peu","5605":"civil","5606":"isc","5607":"brings","5608":"ÑĢÐ°Ð²","5609":"ania","5610":"Äģ","5611":"craft","5612":"mbol","5613":"intellig","5614":"bi","5615":"acing","5616":"you","5617":"becoming","5618":"Der","5619":"ema","5620":"å°±æĺ¯","5621":"ingred","5622":"command","5623":"update","5624":"prem","5625":"opened","5626":"Ħ¤","5627":"ÐµÐ½Ð¸Ðµ","5628":"gard","5629":"statement","5630":"screw","5631":"prote","5632":"cards","5633":"task","5634":"evening","5635":"stitch","5636":"inen","5637":"Ber","5638":"mark","5639":"Dad","5640":"ÐµÑģÑĤÑĮ","5641":"×ŀ×","5642":"ìĹĪ","5643":"ban","5644":"clim","5645":"freedom","5646":"normally","5647":"ÐµÑģÑĮ","5648":"å¦","5649":"provided","5650":"ìŀĲ","5651":"ìķĦëĭĪ","5652":"Kim","5653":"ieder","5654":"ìĿĮ","5655":"citiz","5656":"bike","5657":"bak","5658":"noise","5659":"climate","5660":"izes","5661":"å¾Į","5662":"increasing","5663":"THE","5664":"liqu","5665":"personally","5666":"ef","5667":"resp","5668":"legs","5669":"inder","5670":"ped","5671":"ë§İ","5672":"depend","5673":"variety","5674":"Israel","5675":"wash","5676":"åĨ","5677":"quiet","5678":"James","5679":"Jew","5680":"forever","5681":"Int","5682":"counter","5683":"urance","5684":"Anyway","5685":"care","5686":"Only","5687":"ciÃ³n","5688":"adi","5689":"Ev","5690":"ëĭĪê¹Į","5691":"Î±","5692":"slowly","5693":"Ð¾Ð´","5694":"noticed","5695":"ieren","5696":"fell","5697":"Ðĳ","5698":"mÃªme","5699":"whenever","5700":"!)","5701":"Hy","5702":"å¼","5703":"ords","5704":"usion","5705":"Star","5706":"íĺ","5707":"Mac","5708":"ä¸Ĭ","5709":"iven","5710":"ìĭľ","5711":"ìĹĨ","5712":"Tur","5713":"ger","5714":"ris","5715":"vez","5716":"Ð»Ñİ","5717":"versus","5718":"Ø§Ø","5719":"ocolate","5720":"plane","5721":"zo","5722":"suit","5723":"This","5724":"nerv","5725":"Acc","5726":"ÑĥÐ¶","5727":"ìĤ¬","5728":"nh","5729":"eme","5730":"auss","5731":"meas","5732":"trÃ¨s","5733":"Ïī","5734":"ÑģÐ»Ð¸","5735":"Art","5736":"Second","5737":"Ð¾Ð»ÑĮÐºÐ¾","5738":"cho","5739":"itect","5740":"ÐµÑģÑĤ","5741":"boss","5742":"income","5743":"ł¤","5744":"shad","5745":"appropri","5746":"Mal","5747":"opt","5748":"artist","5749":"plays","5750":"others","5751":"Inter","5752":"virus","5753":"hung","5754":"constant","5755":"script","5756":"snow","5757":"ulf","5758":"ket","5759":"devices","5760":"metal","5761":"ights","5762":"ìĦ¸","5763":"sales","5764":"veget","5765":"collection","5766":"via","5767":"ker","5768":"gotten","5769":"OW","5770":"iÃ©n","5771":"accur","5772":"wave","5773":"ulty","5774":"Air","5775":"leading","5776":"icing","5777":"central","5778":"Christian","5779":"fr","5780":"Although","5781":"songs","5782":"fif","5783":"Ð½ÑĭÑħ","5784":"belong","5785":"ossible","5786":"ì°","5787":"photos","5788":"isl","5789":"relax","5790":"sa","5791":"USIC","5792":"ê·","5793":"manufact","5794":"Twitter","5795":"dangerous","5796":"hyd","5797":"lear","5798":"iant","5799":"âĢ¦","5800":"suddenly","5801":"laugh","5802":"angle","5803":"Got","5804":"worried","5805":"Ð¾Ðµ","5806":"pap","5807":"Mart","5808":"eno","5809":"battery","5810":"Ð¿Ð¾Ñģ","5811":"lights","5812":"arms","5813":"Abs","5814":"mes","5815":"âĢĵ","5816":"useum","5817":"tea","5818":"Mic","5819":"former","5820":"ography","5821":"applications","5822":"Dire","5823":"çĦ¶","5824":"feedback","5825":"itchen","5826":"yorum","5827":"ued","5828":"igt","5829":"Æ°á»","5830":"osition","5831":"Del","5832":"íķĺë","5833":"Back","5834":"ads","5835":"prime","5836":"ì£¼","5837":"ì£ł","5838":"×ĳ","5839":"mut","5840":"].","5841":"ÐĹ","5842":"loc","5843":"kin","5844":"expert","5845":"alright","5846":"ungs","5847":"supply","5848":"leadership","5849":"Fra","5850":"typically","5851":"sel","5852":"trees","5853":"22","5854":"har","5855":"worst","5856":"busy","5857":"anto","5858":"Up","5859":"Bas","5860":"presentation","5861":"strange","5862":"thin","5863":"ÑĤÐµ","5864":"vehicle","5865":"Ð´Ð¾","5866":"cellent","5867":"70","5868":"tired","5869":"crisis","5870":"tiny","5871":"asy","5872":"ran","5873":"éĩ","5874":"forces","5875":"Ð¾Ñĩ","5876":"identify","5877":"assess","5878":"Ð¸ÑĤÐµ","5879":"SE","5880":"creative","5881":"çŁ","5882":"department","5883":"initial","5884":"æĪĳåĢĳ","5885":"Dam","5886":"akt","5887":"vere","5888":"infect","5889":"pump","5890":"áº¡","5891":"viel","5892":"rare","5893":"dot","5894":"ashion","5895":"empl","5896":"flex","5897":"kon","5898":"truck","5899":"lect","5900":"plastic","5901":"law","5902":"likes","5903":"rough","5904":"MAT","5905":"íŀĪ","5906":"commer","5907":"asse","5908":"cake","5909":"actions","5910":"adm","5911":"otherwise","5912":"Health","5913":"colle","5914":"à¹Ģà¸","5915":"rub","5916":"å¾Ĺ","5917":"æĶ","5918":"scr","5919":"zum","5920":"Him","5921":"champ","5922":"concerned","5923":"500","5924":"plate","5925":"Out","5926":"donc","5927":"equipment","5928":"taught","5929":"lled","5930":"íĻ","5931":"iva","5932":"motor","5933":"Â»","5934":"guide","5935":"åī","5936":"stopped","5937":"rat","5938":"labor","5939":"aim","5940":"prepare","5941":"ÑĪ","5942":"shooting","5943":"anned","5944":"cript","5945":"enemy","5946":"depends","5947":"nav","5948":"ber","5949":"lands","5950":"univers","5951":"iu","5952":"factor","5953":"oking","5954":"carbon","5955":"but","5956":"Love","5957":"eld","5958":"Îµ","5959":"ga","5960":"Ã©s","5961":"bread","5962":"volt","5963":"íĬ","5964":"waste","5965":"keeps","5966":"æīĢ","5967":"stor","5968":"honor","5969":"unless","5970":"colum","5971":"ëĮĢ","5972":"plants","5973":"Yeah","5974":"includes","5975":"ä¸Ń","5976":"ox","5977":"peut","5978":"ë§Į","5979":"ìĥģ","5980":"istry","5981":"à¸±","5982":"Department","5983":"anta","5984":"finger","5985":"stretch","5986":"symbol","5987":"neighbor","5988":"æ¬","5989":"ê°Ħ","5990":"~~","5991":"ÑĤÑĭ","5992":"Aber","5993":"kes","5994":"massive","5995":"CH","5996":"Sal","5997":"×ł","5998":"ãĤĴ","5999":"dynam","6000":"ache","6001":"Pre","6002":"monitor","6003":"ented","6004":"EO","6005":"raised","6006":"istics","6007":"Ú©","6008":"vou","6009":"iten","6010":"¡°","6011":"businesses","6012":"earn","6013":"mobile","6014":"idade","6015":"habe","6016":"yr","6017":"lict","6018":"conduct","6019":"federal","6020":"wo","6021":"bu","6022":"none","6023":"teachers","6024":"Ø§ÙĦØ","6025":"éģĵ","6026":"idents","6027":"Ø§ÙĦ","6028":"trend","6029":"ÐµÐ¶","6030":"album","6031":"mich","6032":"based","6033":"à¸µ","6034":"transition","6035":"Ð½Ð¾","6036":"Ãµes","6037":"host","6038":"edy","6039":"Prof","6040":"pan","6041":"ijn","6042":"capacity","6043":"undo","6044":"×ĳ×","6045":"breath","6046":"Ð¼ÐµÐ½","6047":"mÃ¼","6048":"íĻ","6049":"Aut","6050":"hington","6051":"nor","6052":"gain","6053":"point","6054":"Yes","6055":"Øª","6056":"Na","6057":"Ã¥r","6058":"iÃ§","6059":"Mary","6060":"spin","6061":"anti","6062":"åĲ§","6063":"somehow","6064":"laws","6065":"moments","6066":"gre","6067":"moves","6068":"Would","6069":"predict","6070":"vra","6071":"2019","6072":"¶Ħ","6073":"fundament","6074":"25","6075":"pure","6076":"wow","6077":"island","6078":"investment","6079":"bath","6080":"Ya","6081":"harder","6082":"tips","6083":"åĹ","6084":"electron","6085":"Bob","6086":"bond","6087":"odies","6088":"Aug","6089":"gibt","6090":"chair","6091":"twice","6092":"wood","6093":"clar","6094":"mask","6095":"honestly","6096":"2018","6097":"ties","6098":"',","6099":"pens","6100":"surprised","6101":"communication","6102":"ãģ£ãģ¦","6103":"spr","6104":"whose","6105":"stars","6106":"×Ĳ×","6107":"âĢĭ","6108":"properly","6109":"grew","6110":"osing","6111":"divers","6112":"AD","6113":"empt","6114":"expression","6115":"áº¿","6116":"Pal","6117":"ãģĬ","6118":"justice","6119":"pair","6120":"wo","6121":"seat","6122":"orter","6123":"links","6124":"Mer","6125":"rend","6126":"Ð½Ð¾Ðµ","6127":"upid","6128":"Hel","6129":"March","6130":"Lo","6131":"ÑģÑĮ","6132":"hasn","6133":"evalu","6134":"ãģı","6135":"å¤©","6136":"ilos","6137":"funding","6138":"ven","6139":"uan","6140":"Master","6141":"Ol","6142":"Fre","6143":"yap","6144":"Sir","6145":"sch","6146":"mistake","6147":"aman","6148":"dinner","6149":"Washington","6150":"organizations","6151":"Ð¶Ðµ","6152":"aving","6153":"vÃŃ","6154":"birthday","6155":"bear","6156":"Ùģ","6157":"afford","6158":"reven","6159":"relationships","6160":"rough","6161":"Time","6162":"tag","6163":"Sun","6164":"uary","6165":"Po","6166":"car","6167":"abilities","6168":"prison","6169":"lic","6170":"ìłķ","6171":"idden","6172":"species","6173":"é»","6174":"firm","6175":"score","6176":"dit","6177":"spect","6178":"pel","6179":"complicated","6180":"æ¨£","6181":"rank","6182":"opposite","6183":"picked","6184":"ÐºÐ¾Ð½","6185":"eler","6186":"mig","6187":"Sl","6188":"Net","6189":"neck","6190":"France","6191":"technical","6192":"à¸¡","6193":"miles","6194":"primary","6195":"sein","6196":"ses","6197":"laughs","6198":"bra","6199":"ÅĽci","6200":"riage","6201":"nic","6202":"eters","6203":"Ãª","6204":"ologies","6205":"IS","6206":"rad","6207":"udo","6208":"Ä±nd","6209":"mar","6210":"exch","6211":"competition","6212":"aussi","6213":"Serv","6214":"rent","6215":"chocolate","6216":"wieder","6217":"nearly","6218":"speech","6219":"unc","6220":"param","6221":"British","6222":"remain","6223":"à¸ģ","6224":"urt","6225":"Ø¹","6226":"crack","6227":"ails","6228":"promise","6229":"paying","6230":"iÃŁ","6231":"adapt","6232":"Ð°Ð»Ð°","6233":"movies","6234":"wire","6235":"Ł¬","6236":"æľĥ","6237":"terrible","6238":"sÃ³","6239":"perfectly","6240":"åĳ¢","6241":"ordin","6242":"jÃ¡","6243":"impossible","6244":"Three","6245":"nh","6246":"turning","6247":"rum","6248":"Bel","6249":"igg","6250":"responsible","6251":"Ð¸Ð¹","6252":"incredibly","6253":"wi","6254":"iano","6255":"humans","6256":"Ãĩ","6257":"settings","6258":"joy","6259":"oot","6260":"dealing","6261":"illed","6262":"surround","6263":"followed","6264":"possibly","6265":"initi","6266":"sten","6267":"pros","6268":"candid","6269":"assign","6270":"violence","6271":"Well","6272":"rise","6273":"PS","6274":"tambÃ©m","6275":"ëĵ¤","6276":"iance","6277":"yan","6278":"audio","6279":"Bet","6280":"Americans","6281":"Ass","6282":"ischen","6283":"ìŀħ","6284":"ultimately","6285":"polic","6286":"majority","6287":"éĢĻåĢĭ","6288":"Finally","6289":"erap","6290":"guard","6291":"MATT","6292":"brown","6293":"Ð¼Ð¸","6294":"cha","6295":"Holy","6296":"nervous","6297":"ipping","6298":"ÄĻd","6299":"Sa","6300":"ĵľë","6301":"¶Ģ","6302":"lie","6303":"çľŁ","6304":"nuc","6305":"Apr","6306":"éĽ","6307":"Korea","6308":"ego","6309":"Canada","6310":"kÃ¶nnen","6311":"compar","6312":"ganz","6313":"Mais","6314":"theme","6315":"ki","6316":"drawing","6317":"azon","6318":"Off","6319":"tt","6320":"Wind","6321":"todos","6322":"obvious","6323":"Ð½Ð°Ñı","6324":"IM","6325":"Ðł","6326":"well","6327":"blow","6328":"hook","6329":"circle","6330":"ë³´","6331":"architect","6332":"Kr","6333":"cÃ³","6334":"protection","6335":"ega","6336":"åĩ","6337":"watched","6338":"answers","6339":"diet","6340":"ivo","6341":"powder","6342":"yours","6343":"highest","6344":"çĤº","6345":"FF","6346":"åº","6347":"boys","6348":"Ã¶yle","6349":"lunch","6350":"è¬Ŀ","6351":"II","6352":"sets","6353":"mole","6354":"Ûģ","6355":"winter","6356":"lucky","6357":"responsibility","6358":"signal","6359":"wondering","6360":"ax","6361":"cooking","6362":"Ð¾Ð²Ð¾ÑĢ","6363":"leg","6364":"Ð¿Ð¾ÑĤ","6365":"surprise","6366":"democr","6367":"loop","6368":"jag","6369":"curious","6370":"marketing","6371":"ÐĿ","6372":"aron","6373":"Apple","6374":"virtual","6375":"198","6376":"noon","6377":"Met","6378":"Ð¾ÑģÑĤÐ¾","6379":"Ð¾Ð±Ñĭ","6380":"itu","6381":"Aw","6382":"buying","6383":"restaurant","6384":"Bud","6385":"doubt","6386":"grant","6387":"verd","6388":"cash","6389":"faculty","6390":"That","6391":"Ein","6392":"å¤ļ","6393":"wed","6394":"itness","6395":"Mag","6396":"nel","6397":"narr","6398":"accident","6399":"medium","6400":"ements","6401":"crow","6402":"night","6403":"ìĿ¼","6404":"ä¹Ł","6405":"library","6406":"Ð°ÑİÑĤ","6407":"tambiÃ©n","6408":"reference","6409":"fourth","6410":"house","6411":"vention","6412":"filled","6413":"Cour","6414":"ibr","6415":"ng","6416":"developing","6417":"provides","6418":"poll","6419":"traffic","6420":"arently","6421":"à®Ł","6422":"forms","6423":"client","6424":"gentle","6425":"muss","6426":"Congress","6427":"Indian","6428":"cean","6429":"pil","6430":"czy","6431":"stood","6432":"uty","6433":"nÃ¤","6434":"spending","6435":"construction","6436":"inaudible","6437":"ë§Ī","6438":"Īë¬´","6439":"ìĥĿ","6440":"oma","6441":"osen","6442":"ago","6443":"largest","6444":"ãħĭãħĭ","6445":"universe","6446":"bes","6447":"osa","6448":"ÐµÐ³Ð¾","6449":"dude","6450":"MAR","6451":"indeed","6452":"ÎµÎ¹","6453":"managed","6454":"Should","6455":"So","6456":"applied","6457":"fairly","6458":"Den","6459":"analy","6460":"constantly","6461":"ÑģÐ¿","6462":"How","6463":"Say","6464":"encies","6465":"PC","6466":"eggs","6467":"à®°","6468":"eth","6469":"EntÃ£o","6470":"inar","6471":"iot","6472":"cz","6473":"European","6474":"ãģĪ","6475":"AM","6476":"cÃ¡","6477":"radio","6478":"§Į","6479":"hide","6480":"ä»Ĭ","6481":"Start","6482":"club","6483":"Hope","6484":"efforts","6485":"lusion","6486":"cities","6487":"hone","6488":"reached","6489":"guid","6490":"roid","6491":"harm","6492":"cutting","6493":"bul","6494":"18","6495":"iest","6496":"Mex","6497":"iron","6498":"çŁ¥","6499":"afternoon","6500":"hall","6501":"przy","6502":"gosh","6503":"influence","6504":"Ð²Ð¸Ð´","6505":"increased","6506":"Minister","6507":"disci","6508":"Peter","6509":"vert","6510":"menu","6511":"selling","6512":"urally","6513":"quote","6514":"Â¡","6515":"continues","6516":"mpre","6517":"ÅŁey","6518":"itution","6519":"Ð½Ð°Ñģ","6520":"cles","6521":"German","6522":"czy","6523":"Ð£","6524":"Be","6525":"kitchen","6526":"Try","6527":"ipe","6528":"icon","6529":"arp","6530":"providing","6531":"Trans","6532":"technique","6533":"hÃ¤r","6534":"infrast","6535":"susp","6536":"Ã¼ck","6537":"icip","6538":"Ðķ","6539":"cin","6540":"ìĸ´ë","6541":"prz","6542":"component","6543":"bye","6544":"Bible","6545":"izer","6546":"Ch","6547":"solutions","6548":"accompl","6549":"2016","6550":"IE","6551":"Ta","6552":"assume","6553":"liquid","6554":"ë¨¹","6555":"quarter","6556":"female","6557":"Think","6558":"status","6559":"itute","6560":"coach","6561":"rein","6562":"combination","6563":"è·","6564":"Ter","6565":"objects","6566":"district","6567":"makeup","6568":"murder","6569":"was","6570":"fen","6571":"bowl","6572":"published","6573":"sports","6574":"ãģ¡","6575":"identity","6576":"seemed","6577":"acting","6578":"Ð»Ñİ","6579":"rix","6580":"upload","6581":"hast","6582":"boat","6583":"Mod","6584":"rio","6585":"=","6586":"cycle","6587":"¯¸","6588":"loud","6589":"usted","6590":"coming","6591":"2017","6592":"ont","6593":"legisl","6594":"struct","6595":"Something","6596":"conflict","6597":"upper","6598":"manager","6599":"mort","6600":"fra","6601":"Ä°","6602":"Mike","6603":"Work","6604":"nÃ³","6605":"phere","6606":"ìĤ¬ë","6607":"Land","6608":"filter","6609":"promot","6610":"æ°","6611":"æĻĤ","6612":"ķ¼","6613":"recording","6614":"×Ŀ","6615":"associated","6616":"fuel","6617":"under","6618":"election","6619":"employees","6620":"Comp","6621":"ÑĢÑĥÐ³","6622":"Wo","6623":"rol","6624":"saved","6625":"Hon","6626":"Vi","6627":"åĪĨ","6628":"aca","6629":"pret","6630":"wet","6631":"stupid","6632":"lad","6633":"fest","6634":"wake","6635":"Ð¸Ð½","6636":"greatest","6637":"Jim","6638":"seriously","6639":"ì¹","6640":"feelings","6641":"300","6642":"iation","6643":"beauty","6644":"ìŀĺ","6645":"san","6646":"ĵł","6647":"-(","6648":"conscious","6649":"Ð´ÐµÐ»","6650":"bye","6651":"çĻ","6652":"Man","6653":"lets","6654":"shoes","6655":"yd","6656":"ä¹Ī","6657":"disappe","6658":"County","6659":"Scott","6660":"butt","6661":"aquÃŃ","6662":"config","6663":"respond","6664":"LAUGH","6665":"©ëĭĪëĭ¤","6666":"divided","6667":"acqu","6668":"zone","6669":"komm","6670":"aÃ§Ã£o","6671":"ì§ľ","6672":"cut","6673":"23","6674":"maximum","6675":"rog","6676":"runs","6677":"components","6678":"arrived","6679":"confident","6680":"ÑĢÐ¾Ð²","6681":"height","6682":"proced","6683":"EM","6684":"ÐŃÑĤÐ¾","6685":"Men","6686":"talks","6687":"confidence","6688":"Chris","6689":"leads","6690":"nose","6691":"fall","6692":"bb","6693":"Nothing","6694":"iser","6695":"independent","6696":"minor","6697":"sym","6698":"len","6699":"cience","6700":"fashion","6701":"sexual","6702":"bun","6703":"here","6704":"soil","6705":"diese","6706":"shap","6707":"empty","6708":"journal","6709":"agon","6710":"Their","6711":"weekend","6712":"ÃŃt","6713":"error","6714":"nar","6715":"Ã¸","6716":"è©","6717":"ancy","6718":"ìķĬ","6719":"forest","6720":"hacer","6721":"missed","6722":"ãģķ","6723":"åı¯ä»¥","6724":"evil","6725":"storage","6726":"singing","6727":"inha","6728":"knock","6729":"impress","6730":"Ð¾ÑĩÐµÐ½ÑĮ","6731":"Gold","6732":"Sur","6733":"Port","6734":"åİ»","6735":"Lond","6736":"fazer","6737":"oty","6738":"oto","6739":"anx","6740":"William","6741":"existing","6742":"place","6743":"CD","6744":"Î³","6745":"College","6746":"lor","6747":"East","6748":"sen","6749":"fach","6750":"oft","6751":"experienced","6752":"loves","6753":"imm","6754":"poly","6755":"esse","6756":"ì¤","6757":"Grand","6758":"è§","6759":"cher","6760":"victim","6761":"Ges","6762":"Ð»ÑĮ","6763":"vision","6764":"tall","6765":"lens","6766":"Ð·Ð½Ð°","6767":"Both","6768":"ì²","6769":"sustain","6770":"argument","6771":"factors","6772":"automatically","6773":"fruit","6774":"liber","6775":"ale","6776":"Press","6777":"Ba","6778":"Ð³Ð¾","6779":"hundreds","6780":"that","6781":"Rich","6782":"recipe","6783":"IT","6784":"èĩ","6785":"áº¥","6786":"describe","6787":"driver","6788":"Oct","6789":"Mat","6790":"Ð´Ðµ","6791":"meal","6792":"latest","6793":"therap","6794":"compare","6795":"Amazon","6796":"ì¢Ģ","6797":"Russia","6798":"string","6799":"ka","6800":"Commun","6801":"dia","6802":"Is","6803":"millions","6804":"corpor","6805":"correspond","6806":"fixed","6807":"Joe","6808":"Ùİ","6809":"views","6810":"river","6811":"studio","6812":"igger","6813":"flavor","6814":"presence","6815":"units","6816":"saving","6817":"avour","6818":"pesso","6819":"orith","6820":"hers","6821":"Nat","6822":"asion","6823":"Frank","6824":"Ð¾ÑĪ","6825":"ÅĤy","6826":"íĦ","6827":"einem","6828":"functions","6829":"uman","6830":"north","6831":"ìłĦ","6832":"horse","6833":"vid","6834":"pleasure","6835":"Ð°ÑĪ","6836":"Ã©es","6837":"inda","6838":"tail","6839":"explore","6840":"ST","6841":"commercial","6842":"During","6843":"arl","6844":"]:","6845":"fit","6846":"rates","6847":"æ³","6848":"MUSIC","6849":"housing","6850":"einer","6851":"situations","6852":"æĭ","6853":"decre","6854":"appropriate","6855":"ÐµÐ½Ð½Ð¾","6856":"%.","6857":"bac","6858":"wat","6859":"ensity","6860":"Ã¤h","6861":"known","6862":"itz","6863":"emotional","6864":"ervation","6865":"blind","6866":"16","6867":"íĥ","6868":"å¤§å®¶","6869":"joined","6870":"located","6871":"ÑģÐ¼","6872":"adas","6873":"berg","6874":"dess","6875":"dear","6876":"eden","6877":"cos","6878":"adopt","6879":"100","6880":"owe","6881":"Check","6882":"ismo","6883":"simpl","6884":"angry","6885":"Ð¼ÐµÐ½Ñı","6886":"Cam","6887":"pad","6888":"attend","6889":"sample","6890":"æĹ¥","6891":"ìĽ","6892":"IN","6893":"ulous","6894":"Sar","6895":"Show","6896":"infrastructure","6897":"August","6898":"lesson","6899":"niet","6900":"æİ","6901":"foi","6902":"broke","6903":"tr","6904":"çķ","6905":"45","6906":"gew","6907":"ÑĥÐ¿","6908":"ati","6909":"maintain","6910":"artists","6911":"inger","6912":"æĿ¥","6913":"erved","6914":"IA","6915":"equals","6916":"operation","6917":"illy","6918":"ëĤ´","6919":"crowd","6920":"internal","6921":"tests","6922":"Rock","6923":"Cons","6924":"ëĦĪë¬´","6925":"war","6926":"sou","6927":"chart","6928":"June","6929":"April","6930":"gent","6931":"vent","6932":"quand","6933":"Korean","6934":"imo","6935":"çī","6936":"iders","6937":"mountain","6938":"ÑģÑĤÐ°Ð²","6939":"æľĪ","6940":"ijk","6941":"discovered","6942":"Sund","6943":"Sil","6944":"solo","6945":"Â´","6946":"schol","6947":"Each","6948":"çµ","6949":"bare","6950":"íĮ","6951":"vÃŃde","6952":"ingredients","6953":"Its","6954":"Ŀ¼ê³ł","6955":"ìĬ","6956":"Ïį","6957":"Lee","6958":"scary","6959":"princip","6960":"spiritual","6961":"ìħ","6962":"Hold","6963":"æ²Ĵæľī","6964":"define","6965":"Les","6966":"Nor","6967":"End","6968":"blog","6969":"Green","6970":"Ð°ÐµÑĤÑģÑı","6971":"part","6972":"eles","6973":"äºĭ","6974":"Under","6975":"parte","6976":"35","6977":"sector","6978":"Sept","6979":"auth","6980":"à®®","6981":"omin","6982":"clients","6983":"ci","6984":"Friday","6985":"eras","6986":"twe","6987":"ulated","6988":"cultural","6989":"ÑģÐ²Ð¾","6990":"ëįĶ","6991":"Ãº","6992":"parce","6993":"à®²","6994":"tradition","6995":"judge","6996":"General","6997":"determine","6998":"Isn","6999":"PL","7000":"neath","7001":"matters","7002":"íķ´ì","7003":"!]","7004":"Ð°Ñħ","7005":"pool","7006":"variable","7007":"vaccine","7008":"caused","7009":"west","7010":"Yep","7011":"fast","7012":"philos","7013":"hora","7014":"continued","7015":"unfortunately","7016":"ãģį","7017":"æķ","7018":"flight","7019":"wrap","7020":"huh","7021":"Absolutely","7022":"pink","7023":"remains","7024":"nÃ©","7025":"fle","7026":"Sol","7027":"losing","7028":"algorith","7029":"requires","7030":"foundation","7031":"Bur","7032":"profession","7033":"Mid","7034":"ëŃĲ","7035":"can","7036":"Mil","7037":"younger","7038":"appears","7039":"term","7040":"íķĺê³ł","7041":"acle","7042":"London","7043":"engineering","7044":"à¸¢","7045":"advent","7046":"ìĦ¸ìļĶ","7047":"ê¸°","7048":"Maj","7049":"ÑĢÐµÐ¼","7050":"ingu","7051":"UK","7052":"uro","7053":"spe","7054":"tent","7055":"reported","7056":"AL","7057":"Hey","7058":"ë§Ĳ","7059":"dent","7060":"Australia","7061":"January","7062":"³´","7063":"agues","7064":"arsh","7065":"rig","7066":"tiene","7067":"à¸£","7068":"Î®","7069":"machen","7070":"unte","7071":"ÑĥÑģ","7072":"electr","7073":"tutorial","7074":"placed","7075":"ìĿ´ê±°","7076":"Council","7077":"íĸĪ","7078":"°ë¦¬","7079":"ahren","7080":"ê·¸ëŀĺ","7081":"prove","7082":"fol","7083":"quer","7084":"cheap","7085":"Father","7086":"Power","7087":"ĵľ","7088":"purs","7089":"esp","7090":"Bre","7091":"ê¸°ë","7092":"omas","7093":"æĥ³","7094":"Ð¸Ð»ÑĮ","7095":"geht","7096":"oster","7097":"ê³¼","7098":"files","7099":"Ð§","7100":"bell","7101":"whom","7102":"ëĺ","7103":"excellent","7104":"datab","7105":"gÃ¶","7106":"ì§Ħì§ľ","7107":"belief","7108":"jet","7109":"jack","7110":"swim","7111":"rial","7112":"umin","7113":"auc","7114":"soll","7115":"essential","7116":"íķĺëĬĶ","7117":"evol","7118":"chaft","7119":"aine","7120":"thlet","7121":"incor","7122":"reports","7123":"definition","7124":"kel","7125":"circum","7126":"produced","7127":"×Ľ","7128":"antic","7129":"net","7130":"award","7131":"durch","7132":"transp","7133":"male","7134":"¦¬ë","7135":"moon","7136":"George","7137":"flying","7138":"iÃ³","7139":"sources","7140":"plenty","7141":"Democr","7142":"RO","7143":"00","7144":"secure","7145":"Bir","7146":"rain","7147":"zur","7148":"efficient","7149":"repeat","7150":"methods","7151":"calm","7152":"discussed","7153":"ìŀĪëĬĶ","7154":"server","7155":"anie","7156":"Instead","7157":"ideal","7158":"conven","7159":"hoping","7160":"Tor","7161":"depth","7162":"heaven","7163":"ENCE","7164":"habit","7165":"grad","7166":"flag","7167":"ine","7168":"kh","7169":"LI","7170":"facing","7171":"AU","7172":"Tim","7173":"gem","7174":"Jul","7175":"ela","7176":"izza","7177":"fellow","7178":"quel","7179":"spoke","7180":"citizens","7181":"uge","7182":"éĥ½","7183":"pages","7184":"fasc","7185":"religious","7186":"aten","7187":"chapter","7188":"Val","7189":"consult","7190":"Mill","7191":"gl","7192":"oper","7193":"infin","7194":"marriage","7195":"medicine","7196":"Ð´Ð²","7197":"dogs","7198":"instrument","7199":"Exact","7200":"Ã¡n","7201":"2021","7202":"fer","7203":"wealth","7204":"grade","7205":"ÑĭÑħ","7206":"crime","7207":"thread","7208":"essa","7209":"wine","7210":"cohol","7211":"pha","7212":"à¸ĩ","7213":"ogue","7214":"insurance","7215":"arrator","7216":"September","7217":"vid","7218":"Spirit","7219":"gest","7220":"Russian","7221":"properties","7222":"article","7223":"underneath","7224":"yer","7225":"joint","7226":"relatively","7227":"inch","7228":"despite","7229":"Gree","7230":"classic","7231":"supporting","7232":"instruct","7233":"lusive","7234":"diagn","7235":"æĬ","7236":"administration","7237":"Ð°Ð±Ð¾ÑĤ","7238":"Open","7239":"æīĢä»¥","7240":"Ð¿Ð¾Ðº","7241":"dollar","7242":"consequ","7243":"ober","7244":"Germany","7245":"terr","7246":"QU","7247":"Ðĵ","7248":"ç¾","7249":"stronger","7250":"ÉĻ","7251":"ÙĬ","7252":"iPhone","7253":"fabric","7254":"Ã¼h","7255":"enem","7256":"æ¯","7257":"subt","7258":"EE","7259":"onde","7260":"crew","7261":"removed","7262":"lady","7263":"potentially","7264":"ÐĿÐ¾","7265":"yal","7266":"sympt","7267":"army","7268":"introduced","7269":"tes","7270":"aspects","7271":"14","7272":"Lou","7273":")","7274":"deploy","7275":"pet","7276":"han","7277":"Watch","7278":"weapons","7279":"phen","7280":"register","7281":"einfach","7282":"sport","7283":"bridge","7284":"inner","7285":"minimum","7286":"witness","7287":"eso","7288":"village","7289":"owner","7290":"¦¬ê³ł","7291":"scream","7292":"iled","7293":"pitch","7294":"bru","7295":"advance","7296":"ä¸įæĺ¯","7297":"suppose","7298":"Att","7299":"ÐµÑĤÑģÑı","7300":"differences","7301":"aked","7302":"interpret","7303":"Ã¦","7304":"iendo","7305":"absol","7306":"Ð±ÑĥÐ´ÐµÑĤ","7307":"ë²","7308":"trial","7309":"thinks","7310":"lying","7311":"ception","7312":"African","7313":"chemical","7314":"tape","7315":"conversations","7316":"distribution","7317":"ti","7318":"AI","7319":"flash","7320":"understood","7321":"Government","7322":"å°ı","7323":"!?","7324":"Sk","7325":"ê±°ë","7326":"rier","7327":"TS","7328":"According","7329":"ÑİÑĤ","7330":"spons","7331":"ÑĤÐ¾Ð±Ñĭ","7332":"valu","7333":"erem","7334":"ichtig","7335":"resistance","7336":"Gal","7337":"gery","7338":"begins","7339":"advanced","7340":"relevant","7341":"politics","7342":"Fam","7343":"Ã§ok","7344":"Never","7345":"illing","7346":"football","7347":"Ð¸Ð¸","7348":"ID","7349":"Africa","7350":"fingers","7351":"Ð±Ð¾Ð»ÑĮ","7352":"Ã¡","7353":"clip","7354":"Lat","7355":"ãĤĦ","7356":"ì§Ģê¸Ī","7357":"esse","7358":"voor","7359":"aside","7360":"æŀ","7361":"toward","7362":"bat","7363":"valid","7364":"Mens","7365":"completed","7366":"Ä±ÄŁ","7367":"podcast","7368":"Bon","7369":"ÛĴ","7370":"July","7371":"ila","7372":"package","7373":"pulled","7374":"char","7375":"Mel","7376":"ois","7377":"south","7378":"ëĶ","7379":"importance","7380":"pushing","7381":"isol","7382":"stands","7383":"cill","7384":"ä¼","7385":"ðŁ","7386":"ori","7387":"ê°ģ","7388":"homes","7389":"concerns","7390":"biz","7391":"å½","7392":"bie","7393":"bis","7394":"gear","7395":"MS","7396":"hun","7397":"Matt","7398":"áº£","7399":"sey","7400":"Secret","7401":"odd","7402":"Max","7403":"olly","7404":"ford","7405":"SH","7406":"replace","7407":"navig","7408":"ini","7409":"Ð¸Ñı","7410":"giant","7411":"mand","7412":"Happ","7413":"TION","7414":"gun","7415":"iamo","7416":"ìŀħëĭĪëĭ¤","7417":"gap","7418":"Ãªtre","7419":"classroom","7420":"hyp","7421":"aki","7422":"è®","7423":"isters","7424":"acks","7425":"ÑģÐ¾","7426":"bug","7427":"grav","7428":"amin","7429":"everyday","7430":"ì¡°","7431":"garden","7432":"cember","7433":"esto","7434":"åĹİ","7435":"Ø¬","7436":"Ł°","7437":"åģ","7438":"rom","7439":"ìłľê°Ģ","7440":"falling","7441":"fault","7442":"elly","7443":"chest","7444":"Ð»Ð¸","7445":"potato","7446":"buildings","7447":"operating","7448":"pare","7449":"wr","7450":"Don","7451":"Four","7452":"vul","7453":"lÃ¡","7454":"frust","7455":"Dann","7456":"oles","7457":"nya","7458":"ì¶","7459":"ÑĢÐ°Ñģ","7460":"×Ľ","7461":"aÃŃ","7462":"word","7463":"weapon","7464":"obt","7465":"Fall","7466":"Steve","7467":"mixed","7468":"pode","7469":"AS","7470":"Leg","7471":"desc","7472":"split","7473":"emergency","7474":"Sing","7475":"profit","7476":"typical","7477":"Donc","7478":"announce","7479":"Tex","7480":"sacr","7481":"ternal","7482":"committee","7483":"igo","7484":"diam","7485":"phas","7486":"defe","7487":"Profess","7488":"decl","7489":"ÑĥÑĢ","7490":"22","7491":"olf","7492":"Mond","7493":"uy","7494":"ay","7495":"lem","7496":"lovely","7497":"Could","7498":"guar","7499":"HH","7500":"carefully","7501":"Listen","7502":"ÐºÑĢ","7503":"youth","7504":"Therefore","7505":"dreams","7506":"Jeff","7507":"?]","7508":"ëĪ","7509":"DA","7510":"bodies","7511":"aux","7512":"techniques","7513":"mechanism","7514":"×ĵ","7515":"Ð¾Ð½Ð¸","7516":"desire","7517":"Ã®","7518":"Vo","7519":"ques","7520":"ÑĥÐ¶Ðµ","7521":"Whoa","7522":"Game","7523":"hal","7524":"anish","7525":"practices","7526":"500","7527":"sorts","7528":"ups","7529":"ateful","7530":"herself","7531":"guitar","7532":"propos","7533":"sites","7534":"beach","7535":"×¢","7536":"ç¬¬","7537":"Ð½Ñĥ","7538":"dram","7539":"Nove","7540":"VE","7541":"rant","7542":"plot","7543":"ìĹ¬ê¸°","7544":"Ca","7545":"established","7546":"2015","7547":"inspired","7548":"announced","7549":"ä¸ª","7550":"ÑĤÑĢ","7551":"26","7552":"voy","7553":"tech","7554":"ìłģ","7555":"processes","7556":"onto","7557":"Pan","7558":"rapid","7559":"istan","7560":"197","7561":"religion","7562":"28","7563":"smile","7564":"bab","7565":"Ú©","7566":"Vir","7567":"schedule","7568":"execut","7569":"pron","7570":"Ñį","7571":"ÐĿÑĥ","7572":"music","7573":"ìĽĲ","7574":"gan","7575":"ìĭł","7576":"default","7577":"bem","7578":"Ùī","7579":"forced","7580":"Obviously","7581":"stone","7582":"tie","7583":"drinking","7584":"served","7585":"Cause","7586":"conference","7587":"Exactly","7588":"ãĥĪ","7589":"łľ","7590":"ìĻĢ","7591":"Ra","7592":"fake","7593":"diff","7594":"ãģ©","7595":"challenging","7596":"ì¤ĳ","7597":"Ïĩ","7598":"ä»Ģéº¼","7599":"intelligence","7600":"rete","7601":"studying","7602":"appoint","7603":"tan","7604":"Ð¸Ð¼","7605":"curve","7606":"Team","7607":"Az","7608":"Ð·Ð´","7609":"Music","7610":"field","7611":"iration","7612":"failed","7613":"novel","7614":"differently","7615":"escape","7616":"Yo","7617":"October","7618":"Ä±yor","7619":"described","7620":"convert","7621":"acement","7622":"hotel","7623":"isation","7624":"suis","7625":"ãģĳ","7626":"åŃĲ","7627":"æĢİ","7628":"walked","7629":"200","7630":"neighborhood","7631":"isp","7632":"Los","7633":"hidden","7634":"27","7635":"Ð»Ðµ","7636":"phr","7637":"Island","7638":"Street","7639":"enda","7640":"hips","7641":"osure","7642":"defined","7643":"à¸§","7644":"vida","7645":"label","7646":"Everybody","7647":"joke","7648":"iao","7649":"Ø§ÙĨ","7650":"athlet","7651":"...\"","7652":"Fire","7653":"Do","7654":"defense","7655":"entertain","7656":"Ã¡t","7657":"policies","7658":"alcohol","7659":"Engine","7660":"gal","7661":"Jud","7662":"volunte","7663":"icks","7664":"eta","7665":"agt","7666":"×ķ","7667":"mÃ¶","7668":"13","7669":"encoun","7670":"eh","7671":"orange","7672":"absor","7673":"spaces","7674":"November","7675":"êµ¬","7676":"iat","7677":"tam","7678":"cknow","7679":"storm","7680":"Director","7681":"pregn","7682":"ìĿ¼","7683":"Ð¾Ð¿","7684":"resource","7685":"bard","7686":"new","7687":"December","7688":"uits","7689":"weil","7690":"construct","7691":"si","7692":"nic","7693":"flour","7694":"restrict","7695":"Ã¼t","7696":"entirely","7697":"breaking","7698":"entlich","7699":"twenty","7700":"causes","7701":"elev","7702":"Spr","7703":"Internet","7704":"kiss","7705":"operations","7706":"szy","7707":"ëĬ","7708":"scientists","7709":"grown","7710":"owners","7711":"outs","7712":"courses","7713":"usual","7714":"inn","7715":"transm","7716":"Ã±o","7717":"nuest","7718":"ÐºÐ¾Ð²","7719":"category","7720":"Life","7721":"Plus","7722":"atmos","7723":"while","7724":"records","7725":"deÄŁ","7726":"ëĭ¤ê³ł","7727":"ìĤ¬ëŀ","7728":"requirements","7729":"inn","7730":"immig","7731":"deeper","7732":"ç´","7733":"apps","7734":"colleagues","7735":"Å¼y","7736":"offers","7737":"tÃ¡","7738":"column","7739":"laud","7740":"IR","7741":"Ms","7742":"exchange","7743":"las","7744":"Law","7745":"Jon","7746":"isse","7747":"rogen","7748":"moi","7749":"×Ĺ","7750":"sending","7751":"hello","7752":"ÐµÐµ","7753":"ÅĽÄĩ","7754":"succeed","7755":"suffering","7756":"advert","7757":"ì£¼","7758":"çŁ¥éģĵ","7759":"reco","7760":"Ä±nÄ±","7761":"ÐºÐ¾Ð¼","7762":"alley","7763":"failure","7764":"iej","7765":"ëķĮ","7766":"drugs","7767":"cuando","7768":"ìĸ´ëĸ","7769":"About","7770":"quando","7771":"90","7772":"Fed","7773":"17","7774":"Sh","7775":"inho","7776":"Sunday","7777":"Phil","7778":"academic","7779":"Inc","7780":"mainten","7781":"åĩº","7782":"reward","7783":"erd","7784":"committed","7785":"ìĬ¤","7786":"Ð³ÑĢ","7787":"standards","7788":"kal","7789":"intention","7790":"Zh","7791":"acknow","7792":"ä¿","7793":"===","7794":"ogy","7795":"å§","7796":"films","7797":"isk","7798":"teeth","7799":"struggle","7800":"rd","7801":"uen","7802":"diss","7803":"Dar","7804":"amy","7805":"enemies","7806":"veloc","7807":"Call","7808":"umbs","7809":"Ð¸ÑĤÐµÐ»ÑĮ","7810":"ocean","7811":"Ã©d","7812":"ìļ°","7813":"trem","7814":"iento","7815":"ÐµÑĪÑĮ","7816":"fficient","7817":"bottle","7818":"institution","7819":"esty","7820":"Han","7821":"hab","7822":"ëĬĺ","7823":"arrest","7824":"éĤĦ","7825":"letters","7826":"ounce","7827":"íĮ","7828":"An","7829":"creates","7830":"clock","7831":"debt","7832":"ancient","7833":"ifications","7834":"gi","7835":"But","7836":"Tu","7837":"kl","7838":"border","7839":"ook","7840":"Bay","7841":"esta","7842":"ë³´ì","7843":"wra","7844":"prene","7845":"ê²Į","7846":"angle","7847":"believed","7848":"iency","7849":"aka","7850":"critic","7851":"bomb","7852":"ham","7853":"ÐĽ","7854":"êµŃ","7855":"Guys","7856":"rosoft","7857":"crim","7858":"etch","7859":"ARR","7860":"sight","7861":"Ð¸Ð½Ð°","7862":"ain","7863":"á»ĳ","7864":"ische","7865":"aux","7866":"numer","7867":"survive","7868":"All","7869":"BC","7870":"sz","7871":"Ł¬ë","7872":"jam","7873":"Court","7874":"alles","7875":"trigger","7876":"Ðŀ","7877":"format","7878":"decades","7879":"ces","7880":"signs","7881":"robot","7882":"Church","7883":"az","7884":"soup","7885":"Texas","7886":"uten","7887":"ÑĩÑĤÐ¾Ð±Ñĭ","7888":"neighb","7889":"ĸ×Ķ","7890":"communicate","7891":"Å¡","7892":"elimin","7893":"frequency","7894":"hern","7895":"idos","7896":"emphas","7897":"messages","7898":"gender","7899":"Wenn","7900":"Ð²Ð¾","7901":"prices","7902":"olo","7903":"Ð¿Ð¾Ð½","7904":"wing","7905":"Fil","7906":"Ð°ÐµÐ¼","7907":"Cur","7908":"false","7909":"fields","7910":"sÃ©","7911":"24","7912":"mac","7913":"uÅŁ","7914":"layers","7915":"advoc","7916":"wan","7917":"kar","7918":"Åŀ","7919":"decor","7920":"walls","7921":"oe","7922":"issions","7923":"resol","7924":"×¢","7925":"Carol","7926":"Vide","7927":"leep","7928":"YOU","7929":"flip","7930":"surgery","7931":"chop","7932":"UR","7933":".,","7934":"agency","7935":"wanting","7936":"solar","7937":"horiz","7938":"Adam","7939":"staying","7940":"olic","7941":"grateful","7942":"remark","7943":"technologies","7944":"protein","7945":"å¿ĥ","7946":"Ð´ÐµÐ»","7947":"Mont","7948":"shoulder","7949":"za","7950":"rey","7951":"Ooh","7952":"sty","7953":"icar","7954":"Ð¾ÑĤÑĢ","7955":"route","7956":"Turn","7957":"bom","7958":"debate","7959":"possibility","7960":"íķ´ì","7961":"apa","7962":"invent","7963":"Ã¼rlich","7964":"profile","7965":"senior","7966":"ppy","7967":"vas","7968":"mundo","7969":"atever","7970":"apparently","7971":"ener","7972":"×Ĳ","7973":"çŃ","7974":"precis","7975":"align","7976":"knife","7977":"Robert","7978":"åĭ","7979":"fool","7980":"invite","7981":"using","7982":"circumst","7983":"capture","7984":"dough","7985":"Sand","7986":"seu","7987":"News","7988":"bite","7989":"neut","7990":"wide","7991":"lecture","7992":"ëĺĲ","7993":"originally","7994":"choices","7995":"Gar","7996":"verse","7997":"lit","7998":"196","7999":"íķł","8000":"measures","8001":"Ã§Ãµes","8002":"water","8003":"rive","8004":"zijn","8005":"íģ","8006":"Bus","8007":"heb","8008":"ÐµÑħ","8009":"Kar","8010":"NÃ£o","8011":"killing","8012":"à®ª","8013":"mirror","8014":"mod","8015":"mol","8016":"creation","8017":"estim","8018":"atmosphere","8019":"gam","8020":"tables","8021":"isi","8022":"Little","8023":"tas","8024":"Ele","8025":"Ã©l","8026":"scenes","8027":"tone","8028":"affected","8029":"AUDI","8030":"Brown","8031":"If","8032":"Ùĩ","8033":"Daniel","8034":"çľŁçļĦ","8035":"quer","8036":"chi","8037":"íķĺë","8038":"mistakes","8039":"sla","8040":"ãĤ¤","8041":"entr","8042":"ÐµÑģÐ»Ð¸","8043":"shout","8044":"portion","8045":"ÑĹ","8046":"previously","8047":"á»Ļ","8048":"Ð¿ÑĢÐµÐ´","8049":"Ð¾ÑģÑĮ","8050":"heads","8051":"çİ","8052":"åŃ","8053":"åľĭ","8054":"grass","8055":"à¸°","8056":"cribe","8057":"quÃ©","8058":"Spanish","8059":"offered","8060":"Ð±ÑĭÐ»Ð¾","8061":"Cloud","8062":"vector","8063":"Huh","8064":"kad","8065":"ifts","8066":"Î½","8067":"hungry","8068":"Ð¡","8069":"parall","8070":"AND","8071":"vÃŃdeo","8072":"izz","8073":"occup","8074":"íĶ","8075":"seek","8076":"hes","8077":"doors","8078":"houses","8079":"considering","8080":"graduate","8081":"fulf","8082":"è¡Į","8083":"è£","8084":"extreme","8085":"flowers","8086":"itate","8087":"Pri","8088":"fundamental","8089":"ÑĩÐ°Ñģ","8090":"è¯´","8091":"texture","8092":"įĺ","8093":"AND","8094":"à®±","8095":"Tem","8096":"nada","8097":"ì§Ħ","8098":"celebrate","8099":"ums","8100":"pill","8101":"Ð¸Ð»Ð¸","8102":"going","8103":"hip","8104":"supported","8105":"perman","8106":"agreement","8107":"tym","8108":"ëĳ","8109":"ĵ¤ìĿ´","8110":"purchase","8111":"íĶ","8112":"Plan","8113":"egen","8114":"recover","8115":"PU","8116":"Microsoft","8117":"duc","8118":"holes","8119":"dropped","8120":"pig","8121":"ending","8122":"attacks","8123":"bec","8124":"ren","8125":"rapp","8126":"ìļ°ë¦¬","8127":"terror","8128":"×Ļ","8129":"edit","8130":"ao","8131":".</","8132":"2000","8133":"Union","8134":"scientific","8135":"punch","8136":"ortion","8137":"puts","8138":"Monday","8139":"Jer","8140":"EC","8141":"matrix","8142":"institutions","8143":"mont","8144":"exhib","8145":"speaker","8146":"meters","8147":".]","8148":"serving","8149":"database","8150":"LAU","8151":"damn","8152":"poder","8153":"!!!!","8154":"íĸĪ","8155":"AUDIENCE","8156":"jun","8157":"AC","8158":"Ital","8159":"sec","8160":"Young","8161":"ruck","8162":"ouve","8163":"à¸Ħ","8164":"çĪ","8165":"ë§Įë","8166":"ading","8167":"uration","8168":"PS","8169":"Ðļ","8170":"Unf","8171":"èģ","8172":"oria","8173":"manif","8174":"sentence","8175":"signed","8176":"BS","8177":"proof","8178":"Muslim","8179":"nuclear","8180":"Ð³Ð¾Ð²Ð¾ÑĢ","8181":"woll","8182":"favour","8183":"WH","8184":"vulner","8185":"closely","8186":"index","8187":"ÑĤÐµÑĢ","8188":"achel","8189":"capable","8190":"Bes","8191":"croch","8192":"ekt","8193":"sheet","8194":"sees","8195":"naturally","8196":"England","8197":"participate","8198":"exists","8199":"sharp","8200":"py","8201":"breakfast","8202":"bow","8203":"twist","8204":"ç§","8205":"inating","8206":"oti","8207":"Found","8208":"deux","8209":"selected","8210":"ìłĦ","8211":"osis","8212":"presented","8213":"linear","8214":"ê´","8215":"kun","8216":"é»ŀ","8217":"Ã´ng","8218":"bÄĻd","8219":"tempor","8220":"cable","8221":"Ð¿ÑĢÐ¾ÑģÑĤÐ¾","8222":"ÐºÐµ","8223":"ÑĤÐ°Ð¼","8224":"winning","8225":"èĥ½","8226":"ĺëıĦ","8227":"2014","8228":"ìĹ¬ë","8229":"UN","8230":"Click","8231":"prepar","8232":"TO","8233":"sua","8234":"Ham","8235":"lÃ¤","8236":"absolute","8237":"engaged","8238":"å¦Ĥ","8239":"Hmm","8240":"dash","8241":"TA","8242":"Ã±os","8243":"spo","8244":"çĶŁ","8245":")]","8246":"tested","8247":"blank","8248":"reject","8249":"assim","8250":"rear","8251":"Str","8252":"crash","8253":"Ð½Ð°ÑĪ","8254":"Ð¸ÑĤÑģÑı","8255":"colon","8256":"Unt","8257":"Ce","8258":"acid","8259":"éĹ","8260":"kit","8261":"ibilities","8262":"uto","8263":"valuable","8264":"list","8265":"parties","8266":"Mm","8267":"colour","8268":"cham","8269":"steel","8270":"Imp","8271":"funds","8272":"DNA","8273":"Ken","8274":"inde","8275":"íķ´ìĦľ","8276":"ãĥĥ","8277":"Happy","8278":"Use","8279":"Light","8280":"lip","8281":"authority","8282":"Long","8283":"Iran","8284":"ell","8285":"coordin","8286":"subm","8287":"recorded","8288":"ÑĥÑĪ","8289":"delta","8290":"reform","8291":"Still","8292":"oppon","8293":"allowing","8294":"patterns","8295":"letting","8296":"sleeping","8297":"Okay","8298":"pizza","8299":"ÅĽ","8300":"Ð´Ð¾Ð»","8301":"talent","8302":"ensions","8303":"environmental","8304":"professor","8305":"shots","8306":"contains","8307":"ugar","8308":"yo","8309":"ıĻ","8310":"sequence","8311":"Î¹Î±","8312":"ader","8313":"éł","8314":"Ð°Ñĩ","8315":"ÙĨØ§","8316":"Ik","8317":"tous","8318":"uries","8319":"pounds","8320":"external","8321":"iments","8322":"vraiment","8323":"ìĭ¤","8324":"happiness","8325":"prze","8326":"estic","8327":"establish","8328":"Flor","8329":"rig","8330":"honey","8331":"pul","8332":"symptoms","8333":"brows","8334":"ÐµÐ»Ð¸","8335":"ÏĦÎ¿","8336":"shirt","8337":"Techn","8338":"Program","8339":"ÐµÐ¼Ñĥ","8340":"upset","8341":"guest","8342":"burg","8343":"unlike","8344":"somewhat","8345":"hanging","8346":"ae","8347":"rum","8348":"photograph","8349":"Li","8350":"åĽŀ","8351":"stable","8352":"voltage","8353":"Ell","8354":"entreprene","8355":"uses","8356":"assen","8357":"¬¸","8358":"ë§İìĿ´","8359":"ghost","8360":"sagen","8361":"combat","8362":"gÃ¶r","8363":"Cap","8364":"sÃ£o","8365":"Kat","8366":"forma","8367":"summ","8368":"march","8369":"vast","8370":"Ã¼k","8371":"commitment","8372":"imos","8373":"Let","8374":"dedicated","8375":"iste","8376":"lay","8377":"éĢĻæ¨£","8378":"topics","8379":"machines","8380":"Paris","8381":"ìĿ´ëŁ°","8382":"mini","8383":"markets","8384":"ko","8385":"Î´","8386":"ville","8387":"goodness","8388":"framework","8389":"ulture","8390":"basket","8391":"essa","8392":"Ð°ÑĨÐ¸","8393":"uster","8394":"ê¹","8395":"ä½Ĩ","8396":"extent","8397":"Menschen","8398":"consistent","8399":"auto","8400":"rip","8401":"mere","8402":"à¯Ī","8403":"ÑĶ","8404":"elle","8405":"ĮĢë","8406":"oken","8407":"pulling","8408":"cow","8409":"outhern","8410":"meetings","8411":"cada","8412":"Ð½ÑĭÐ¼","8413":"iente","8414":"bast","8415":"aning","8416":"focusing","8417":"road","8418":"roof","8419":"Professor","8420":"SP","8421":"ÑĢÐ°Ð·","8422":"nood","8423":"400","8424":"ìĿ´ìłľ","8425":"ìŀĪ","8426":"Mount","8427":"ÐµÐ¹ÑĩÐ°Ñģ","8428":"×Ĳ","8429":"Why","8430":"×ŀ","8431":"Ä±nda","8432":"positions","8433":"Ã¨me","8434":"çı","8435":"Ð´ÑĢÑĥÐ³","8436":"iyor","8437":"passing","8438":"assemb","8439":"smoke","8440":"til","8441":"museum","8442":"ÐĶ","8443":"Person","8444":"Ð½Ð¸Ð¼","8445":"leich","8446":"intent","8447":"sque","8448":"craft","8449":"ìĪĺ","8450":"orsun","8451":"150","8452":"brothers","8453":"vor","8454":"Speaker","8455":"icians","8456":"officer","8457":"iÃ§in","8458":"ÑĤÐµÐ±","8459":"scratch","8460":"generate","8461":"yi","8462":"emotions","8463":"aus","8464":"ì¹ĺ","8465":"45","8466":"Link","8467":"Real","8468":"ate","8469":"Ð½Ð°Ð´","8470":"native","8471":"á»ĩ","8472":"Ä±y","8473":"enorm","8474":"blocks","8475":"faces","8476":"acc","8477":"iveness","8478":"inches","8479":"uis","8480":"heit","8481":"streets","8482":"probability","8483":"asi","8484":"impl","8485":"à¤","8486":"urday","8487":"faut","8488":"omy","8489":"pip","8490":"illust","8491":"à®¯","8492":"Jun","8493":"lying","8494":"99","8495":"memories","8496":"practical","8497":"iana","8498":"onces","8499":"viewers","8500":"Thomas","8501":"æĮ","8502":"Girl","8503":"Whether","8504":"innovation","8505":"disappoint","8506":"My","8507":"winner","8508":"ig","8509":"ratio","8510":"Blue","8511":"Sub","8512":"documents","8513":"formula","8514":"ë©","8515":"ÑĬ","8516":"appeared","8517":"var","8518":"andon","8519":"spray","8520":"mak","8521":"QUES","8522":"KE","8523":"wedding","8524":"Re","8525":"Ð°ÑĤÑĮÑģÑı","8526":"uno","8527":"gall","8528":"íĦ°","8529":"cio","8530":"cers","8531":"Ð¼Ð½Ðµ","8532":"pepper","8533":"ãģĹãģŁ","8534":"Febru","8535":"alternative","8536":"fu","8537":"Basically","8538":"Smith","8539":"gate","8540":"Tam","8541":"Whatever","8542":"approxim","8543":"concert","8544":"juice","8545":"Especially","8546":"dynamic","8547":"Qu","8548":"onder","8549":"ivery","8550":"bang","8551":"rul","8552":"Party","8553":"scholars","8554":"crying","8555":"jÄħ","8556":"Ð¢","8557":"QUESTION","8558":"rid","8559":"accurate","8560":"Ã§o","8561":"Cool","8562":"coin","8563":"ìĥģ","8564":"Fo","8565":"prÃ³","8566":"Roman","8567":"ÐŁÑĢ","8568":"checking","8569":"?'","8570":"attached","8571":"Islam","8572":"experts","8573":"×§","8574":"Const","8575":"ÑĢÐ°Ð½","8576":"shadow","8577":"delay","8578":"ÐĴ","8579":"orient","8580":"ëĤ","8581":"ellen","8582":"asÃŃ","8583":"ÐºÐ¸Ð¹","8584":"historical","8585":"uncom","8586":"omp","8587":"hm","8588":"bil","8589":"planned","8590":"Unfortunately","8591":"Windows","8592":"Ø´","8593":"encounter","8594":"ìĥĿê°ģ","8595":"regarding","8596":"arrass","8597":"recovery","8598":"Hur","8599":"Emp","8600":"sÃŃ","8601":"íķĺê²Į","8602":"defend","8603":"cet","8604":"asse","8605":"ëĭ¨","8606":"okes","8607":"remote","8608":"Ø³","8609":"arts","8610":"isco","8611":"aucoup","8612":"Mexico","8613":"Ð¿Ð¾Ð¼","8614":"chosen","8615":"emat","8616":"oding","8617":"flower","8618":"standing","8619":"Associ","8620":"ummy","8621":"ILL","8622":"cameras","8623":"åĨį","8624":"æĪĳ","8625":"Arab","8626":"Sum","8627":"tego","8628":"criminal","8629":"iform","8630":"stack","8631":"ìĦ±","8632":"Donald","8633":"Old","8634":"dust","8635":"Jose","8636":"hem","8637":"increases","8638":"osta","8639":"dying","8640":"River","8641":"moist","8642":"ÑĤÐ¾Ð²","8643":"ares","8644":"discipl","8645":"rait","8646":"Has","8647":"ygen","8648":"Tre","8649":"ë´","8650":"languages","8651":"Hen","8652":"36","8653":"Disney","8654":"ints","8655":"algo","8656":"foods","8657":"setup","8658":"lan","8659":"effectively","8660":"wherever","8661":"æľĢ","8662":"unter","8663":"formation","8664":"hits","8665":"principle","8666":"tastes","8667":"§Ī","8668":"treated","8669":"resolution","8670":"privile","8671":"IP","8672":"ë°","8673":"territ","8674":"powers","8675":"íĥ","8676":"Vict","8677":"bother","8678":"Chair","8679":"muscle","8680":"sale","8681":"decent","8682":"coup","8683":"Squ","8684":"coast","8685":"rod","8686":"Franc","8687":"bathroom","8688":"shopping","8689":"Ð¼Ð¾Ð¶ÐµÑĤ","8690":"iÅŁ","8691":"Stay","8692":"grade","8693":"formed","8694":"baÅŁ","8695":"brill","8696":"jour","8697":"íĸ","8698":"åĽł","8699":"wie","8700":"icate","8701":"âĢĭâĢĭ","8702":"Norm","8703":"à¥","8704":"mainly","8705":"Space","8706":"tremend","8707":"iti","8708":"à®µ","8709":"UT","8710":"Music","8711":"February","8712":"contrast","8713":"å¯¹","8714":"esting","8715":"Î´","8716":"inging","8717":"ÙĨ","8718":"ssen","8719":"Home","8720":"shell","8721":"Hay","8722":"aller","8723":"Ap","8724":"Western","8725":"Word","8726":"PLAY","8727":"ëħ","8728":"Aqu","8729":"entry","8730":"launched","8731":"Mem","8732":"Pour","8733":"zwe","8734":"Someone","8735":"inge","8736":"Prob","8737":"mble","8738":"Rel","8739":"uru","8740":"rhy","8741":"gig","8742":"engagement","8743":"Ã¼ÅŁ","8744":"ãĤĩ","8745":"offering","8746":"whel","8747":"actor","8748":"å°į","8749":"APP","8750":"west","8751":"Roy","8752":"returned","8753":"silver","8754":"rating","8755":"estar","8756":"ske","8757":"ti","8758":"ication","8759":"annoy","8760":"deeply","8761":"ìļ©","8762":"natÃ¼rlich","8763":"ELL","8764":"Cath","8765":"rail","8766":"Ð½Ð¾Ð²","8767":"prayer","8768":"col","8769":"GB","8770":"Ð¢Ð°Ðº","8771":"gla","8772":"Water","8773":"ÑıÑĤÑĮ","8774":"Non","8775":"Ã´t","8776":"agers","8777":"hug","8778":"doctors","8779":"ancing","8780":"Talk","8781":"zing","8782":"hadn","8783":"lui","8784":"atÃ©","8785":"ê·¸ë¦¬ê³ł","8786":"ê¹Įì§Ģ","8787":"ici","8788":"incorpor","8789":"Di","8790":"zil","8791":"anya","8792":"ªħ","8793":"Â»","8794":"35","8795":"beer","8796":"beaucoup","8797":"MC","8798":"ears","8799":"ogen","8800":"Quest","8801":"eda","8802":"æľ¬","8803":"Saturday","8804":"falls","8805":"ston","8806":"bles","8807":"thus","8808":"ëĦ¤","8809":"à¹Ħ","8810":"therm","8811":"diversity","8812":"soy","8813":"azu","8814":"imp","8815":"television","8816":"éģİ","8817":"×©×ľ","8818":"wur","8819":"edges","8820":"lessons","8821":"Aud","8822":"ãģĹãģ¦","8823":"voir","8824":"amento","8825":"explained","8826":"Ð¾Ð½Ð°","8827":"temps","8828":"Ïİ","8829":"They","8830":"surprising","8831":"Ð°Ð½Ð¸Ñı","8832":"Drag","8833":"éĿ¢","8834":"Cle","8835":"nam","8836":"Ð»ÑİÐ´","8837":"hardware","8838":"thumbs","8839":"ÎºÎ±Î¹","8840":"Top","8841":"Ã¥","8842":"éĻ","8843":"×ķ×¨","8844":"ê·¸ëŀĺìĦľ","8845":"Budd","8846":"thern","8847":"interests","8848":"Ø°","8849":"developers","8850":"hitting","8851":"opposed","8852":"hearts","8853":"Android","8854":"Hand","8855":"represents","8856":"glich","8857":"íĬ¸","8858":"32","8859":"domin","8860":"Ann","8861":"ä¸Ģä¸ĭ","8862":"Ã©tÃ©","8863":"zoom","8864":"ktÃ³re","8865":"adults","8866":"ordered","8867":"picking","8868":"Hong","8869":"filming","8870":"æĢĿ","8871":"seed","8872":"AT","8873":"calculate","8874":"ÐºÐ¾Ð³Ð´Ð°","8875":"Os","8876":"icit","8877":"remaining","8878":"segu","8879":"Ã»","8880":"ìĺ¤ëĬĺ","8881":"arrive","8882":"congr","8883":"grande","8884":"healthcare","8885":"Ð¼Ð¾Ð¶Ð½Ð¾","8886":"SA","8887":"este","8888":"awareness","8889":"squared","8890":"xture","8891":"Being","8892":"soldiers","8893":"ÑĥÐ±","8894":"revolution","8895":"trained","8896":"enden","8897":"è°","8898":"dancing","8899":"installed","8900":"prise","8901":"veter","8902":"menos","8903":"nell","8904":"Brother","8905":"nun","8906":"importantly","8907":"alled","8908":"iaÅĤ","8909":"abled","8910":"System","8911":"Vol","8912":"eld","8913":"emotion","8914":"ican","8915":"Bank","8916":"ikes","8917":"vlog","8918":"Ð²Ð¾Ð·","8919":"puede","8920":"ìĺ¤","8921":"teen","8922":"severe","8923":"%,","8924":"cleaning","8925":"zÄħ","8926":"ĹĲ","8927":"Through","8928":"Set","8929":"EP","8930":"\"?","8931":"Mother","8932":"figured","8933":"mud","8934":"Ñĸ","8935":"Office","8936":"raw","8937":"destroyed","8938":"enta","8939":"aggress","8940":"Ð¾Ñģ","8941":"ëª¨ë","8942":"Ã¤Ã¤","8943":"AR","8944":"correctly","8945":"åīį","8946":"stir","8947":"extract","8948":"vehicles","8949":"éĸĭ","8950":"Run","8951":"Ð²ÑĢÐµÐ¼","8952":"parallel","8953":"lag","8954":"ju","8955":"dare","8956":"Mot","8957":"ono","8958":"beings","8959":"stro","8960":"excuse","8961":"alpha","8962":"asks","8963":"pocket","8964":"...?","8965":"kita","8966":"Ã¼m","8967":"appearance","8968":"ordan","8969":"insert","8970":"Ð½Ð°Ñĩ","8971":"Ľi","8972":"tempo","8973":"facility","8974":"visible","8975":"åĴ","8976":"Science","8977":"uros","8978":"ÙģÙĬ","8979":"Van","8980":"tension","8981":"íķł","8982":"delivery","8983":"stim","8984":"survey","8985":"Gra","8986":"bol","8987":"æł","8988":"weiter","8989":"ÃŁen","8990":"ä¸ĢåĢĭ","8991":"proceed","8992":"impressive","8993":"Voc","8994":"iously","8995":"Ð´Ð°","8996":"hale","8997":"och","8998":"glue","8999":"phet","9000":"cont","9001":"fits","9002":"boxes","9003":"controls","9004":"Child","9005":"scenario","9006":"trop","9007":"processing","9008":"ÑĤÐ¾Ð»ÑĮÐºÐ¾","9009":"birds","9010":"Chic","9011":"Ð½Ð°Ð¿","9012":"2013","9013":"mÃ¼ssen","9014":"Jag","9015":"sÄħ","9016":"perce","9017":"reh","9018":"Fore","9019":"confused","9020":"aire","9021":"accomplish","9022":"casa","9023":"clock","9024":"influen","9025":"RO","9026":"bone","9027":"ician","9028":"SC","9029":"strategies","9030":"gh","9031":"Ð´Ñĥ","9032":"itu","9033":"personality","9034":"bardzo","9035":"accepted","9036":"stom","9037":"iev","9038":"Hist","9039":"Aus","9040":"ë°Ķë","9041":"ATOR","9042":"æĦı","9043":"oir","9044":"magaz","9045":"explan","9046":"corn","9047":"ils","9048":"circuit","9049":"gay","9050":"hop","9051":"ãĤĥ","9052":"equival","9053":"dieser","9054":"erves","9055":"comes","9056":"klich","9057":"ëķĮë","9058":"abet","9059":"exha","9060":"manner","9061":"âĻªâĻª","9062":"Ã©c","9063":"Ã¤l","9064":"confirm","9065":"entered","9066":"emplo","9067":"Far","9068":"oÃ¹","9069":"essions","9070":"nurs","9071":"entÃ£o","9072":"abandon","9073":"life","9074":"wis","9075":"Narrator","9076":"ìĸ´","9077":"There","9078":"Ram","9079":"aste","9080":"attrib","9081":"Ay","9082":"mesmo","9083":"Î½Î±","9084":"é«","9085":"enses","9086":"crop","9087":"Ð·Ð´ÐµÑģÑĮ","9088":"Until","9089":"stein","9090":"oven","9091":"suspect","9092":"het","9093":"puis","9094":"carried","9095":"Ã©g","9096":"Dev","9097":"ems","9098":"reens","9099":"berry","9100":"templ","9101":"Bit","9102":"variables","9103":"overwhel","9104":"Î¼Îµ","9105":"initially","9106":"ìķĺ","9107":"othing","9108":"ÐµÑĤÑĮ","9109":"Hill","9110":"depart","9111":"myst","9112":"azz","9113":"fluid","9114":"DC","9115":"clinical","9116":"Ryan","9117":"Florida","9118":"Tak","9119":"anxiety","9120":"bro","9121":"circumstances","9122":"Ùĥ","9123":"existence","9124":"tong","9125":"2012","9126":"Secretary","9127":"spicy","9128":"[(","9129":"Without","9130":"facts","9131":"tons","9132":"App","9133":"Stand","9134":"lies","9135":"AD","9136":"win","9137":"ÏĦÎµ","9138":"applause","9139":"IP","9140":"sta","9141":"Sup","9142":"phones","9143":"ŀĳ","9144":"pie","9145":"Pot","9146":"NO","9147":"èµ·","9148":"×ŀ","9149":"ÐĶÐ°","9150":"icas","9151":"Ir","9152":"pushed","9153":"uncle","9154":"ÙħÙĨ","9155":"lon","9156":"principles","9157":"International","9158":"Ãĸ","9159":"Å¾","9160":"saya","9161":"ê³ł","9162":"rib","9163":"paste","9164":"warning","9165":"musical","9166":"agreed","9167":"Ð¾ÑĢÐ¼","9168":"garlic","9169":"oxygen","9170":"ìĺĪ","9171":"Al","9172":"ë§ŀ","9173":"elines","9174":"LAUSE","9175":"ç¾İ","9176":"gypt","9177":"GE","9178":"cker","9179":"tu","9180":"shel","9181":"stayed","9182":"Ð³Ð¾Ð´","9183":"lapt","9184":"Martin","9185":"invited","9186":"confir","9187":"embarrass","9188":"aciones","9189":"Camp","9190":"holds","9191":"axy","9192":"dive","9193":"uckles","9194":"boost","9195":"wÃ¼r","9196":"stal","9197":"ÑĢÐ°Ð±Ð¾ÑĤ","9198":"dÃ©c","9199":"officers","9200":"ìķĦë","9201":"ologist","9202":"×ŀ×","9203":"seeds","9204":"buff","9205":"updates","9206":"ãĤı","9207":"ded","9208":"friendly","9209":"council","9210":"Probably","9211":"piano","9212":"reduced","9213":"ÏĦÎ±","9214":"authent","9215":"explos","9216":"pass","9217":"Hit","9218":"jud","9219":"Nav","9220":"omi","9221":"commission","9222":"gym","9223":"ÐŁ","9224":"pon","9225":"ÑĢÐ¾Ñģ","9226":"interface","9227":"structures","9228":"Jen","9229":"yok","9230":"meu","9231":"ì§Ģë§Į","9232":"ned","9233":"Wie","9234":"identified","9235":"channels","9236":"Ä±na","9237":"philosop","9238":"keit","9239":"bits","9240":"entes","9241":"frag","9242":"Kind","9243":"doch","9244":"sne","9245":"inding","9246":"Jewish","9247":"Ð¾ÑĢÐ¾ÑĪ","9248":"fue","9249":"æĸ¹","9250":"íı","9251":"mÄ±","9252":"keine","9253":"locations","9254":"çĶ¨","9255":"meter","9256":"beef","9257":"ãģĺ","9258":"manip","9259":"sono","9260":"zzle","9261":"ç¶","9262":"pes","9263":"horrible","9264":"Sn","9265":"factory","9266":"fifth","9267":"cooked","9268":"mood","9269":"velocity","9270":"oblig","9271":"connections","9272":"ÄŁim","9273":"ê³µ","9274":"domain","9275":"applying","9276":"ridic","9277":"cel","9278":"childhood","9279":"Test","9280":"ratulations","9281":"Virgin","9282":"CEO","9283":"Ð¿Ð»","9284":"algorithm","9285":"interaction","9286":"aga","9287":"kidding","9288":"tomato","9289":"continuing","9290":"lad","9291":"stream","9292":"Ð¾Ð¶Ðµ","9293":"ìĺģ","9294":"ÐµÐ»Ð¾Ð²","9295":"BA","9296":"nap","9297":"Nobody","9298":"thumb","9299":"ON","9300":"rush","9301":"DR","9302":"strike","9303":"evolution","9304":"iche","9305":"ì»","9306":"ê·¸ëŁ°","9307":"Ø§Øª","9308":"ak","9309":"windows","9310":"excess","9311":"ãģªãģĦ","9312":"conclud","9313":"episodes","9314":"struggling","9315":"Dat","9316":"Ŀ¼ë","9317":"keys","9318":"kle","9319":"æŀľ","9320":"vegetables","9321":"ystem","9322":"Ãªncia","9323":"rick","9324":"revenue","9325":"Haw","9326":"lan","9327":"antes","9328":"iniz","9329":"ãģĵãĤĮ","9330":"Ð¸ÑģÑĤ","9331":"sup","9332":"©´ìĦľ","9333":"momento","9334":"isto","9335":"ãģ¤","9336":"Eric","9337":"iors","9338":"baj","9339":"introduction","9340":"irty","9341":"deck","9342":"real","9343":"Mario","9344":"loving","9345":"à¸Ķ","9346":"supports","9347":"Ð¸ÑĩÐµÑģ","9348":"incident","9349":"utch","9350":"uv","9351":"boom","9352":"ÐµÑĢÑĮ","9353":"Ð½ÑĥÐ¶","9354":"combined","9355":"Lin","9356":"23","9357":"oration","9358":"nte","9359":"sor","9360":"dirty","9361":"ifer","9362":"API","9363":"collaboration","9364":"iable","9365":"priority","9366":"Ale","9367":"Prin","9368":"Exc","9369":"vais","9370":"gran","9371":"stood","9372":"recru","9373":"Mur","9374":"esis","9375":"asp","9376":"locked","9377":"Pero","9378":"Harry","9379":"tudo","9380":"Ten","9381":"Øµ","9382":"forcement","9383":"))","9384":"oli","9385":"ìĿ¸","9386":"suppl","9387":"crochet","9388":"phenomen","9389":"los","9390":"athan","9391":"Supp","9392":"embr","9393":"bek","9394":"Zeit","9395":"gend","9396":"rooms","9397":"ª½","9398":"VER","9399":"nych","9400":"dont","9401":"cabin","9402":"accounts","9403":"Easter","9404":"×ķ×ľ","9405":"ãĥ«","9406":"facilities","9407":"beit","9408":"linked","9409":"Ger","9410":"programming","9411":"otic","9412":"drama","9413":"29","9414":"íģ","9415":"instructions","9416":"importante","9417":"waves","9418":"aid","9419":"CK","9420":"ê²łìĬµëĭĪëĭ¤","9421":"Mir","9422":"tid","9423":"Hot","9424":"arrange","9425":"Baby","9426":"tack","9427":"Ñī","9428":"íĿ","9429":"vertical","9430":"heel","9431":"Cut","9432":"narrow","9433":"Ari","9434":"knee","9435":"Brazil","9436":"Five","9437":"posted","9438":"UD","9439":"rolling","9440":"Î¸","9441":"claims","9442":"Ins","9443":"OK","9444":"ãģĦãģĨ","9445":"uin","9446":"Institute","9447":"intense","9448":"iar","9449":"Nick","9450":"selection","9451":"legend","9452":"uniform","9453":"Ãºn","9454":"studied","9455":"å¤ª","9456":"Ð¥","9457":"ìķĮ","9458":"gers","9459":"dow","9460":"CS","9461":"agent","9462":"Auf","9463":"è¦º","9464":"jog","9465":"aircraft","9466":"ëĭĺ","9467":"vit","9468":"uls","9469":"segment","9470":"orders","9471":"Class","9472":"apolog","9473":"platforms","9474":"myth","9475":"Ð°Ð¶Ðµ","9476":"Book","9477":"sensitive","9478":"Ð¿Ð¾Ð»ÑĥÑĩ","9479":"damit","9480":"Capt","9481":"sole","9482":"architecture","9483":"Wil","9484":"inher","9485":"cap","9486":"Boy","9487":"æ¬¡","9488":"burning","9489":"Public","9490":"behalf","9491":"ìľĦ","9492":"therapy","9493":"ubscribe","9494":"involve","9495":"exposed","9496":"iÅŁ","9497":"ä»¬","9498":"Ãªtre","9499":"toil","9500":"sink","9501":"pir","9502":"åĥ","9503":"II","9504":"agencies","9505":"q","9506":"Down","9507":"auf","9508":"ë§Ľ","9509":"ãĥ»ãĥ»","9510":"proc","9511":"oked","9512":"stores","9513":"power","9514":"Things","9515":"accessible","9516":"teÅ¼","9517":"Educ","9518":"speakers","9519":"Sarah","9520":"ĶĶ","9521":"diverse","9522":"ìŀĸ","9523":"Ult","9524":"Ãły","9525":"Chicago","9526":"She","9527":"athy","9528":"enable","9529":"trading","9530":"muscles","9531":"æĽ","9532":"Care","9533":"Ur","9534":"Scot","9535":"phrase","9536":"ENT","9537":"ê²½","9538":"Jac","9539":"pack","9540":"determined","9541":"Ã¼nd","9542":"negoti","9543":"vidÃ©","9544":"roz","9545":"Sus","9546":"riding","9547":"hmen","9548":"Def","9549":"Cre","9550":"ãĤ¹","9551":"Wall","9552":"igan","9553":"sempre","9554":"ÑĸÐ´","9555":"driven","9556":"footage","9557":"fond","9558":"Way","9559":"Ã¤m","9560":"Obama","9561":"Service","9562":"75","9563":"Dark","9564":"ê·¼ë","9565":"Cat","9566":"Ø·","9567":"éĮ","9568":"jug","9569":"etwas","9570":"breathing","9571":"á»ĥ","9572":"åħ¶","9573":"Web","9574":"ä¹ĭ","9575":"èµ°","9576":"fois","9577":"lighting","9578":"DA","9579":"obst","9580":"leur","9581":"çı¾","9582":"Egypt","9583":"Army","9584":"icide","9585":"Ð°ÑĤÐ¸","9586":"ëĭ¤ë","9587":"apartment","9588":"chief","9589":"Wed","9590":"networks","9591":"batt","9592":"æ¸","9593":"Luc","9594":"nicely","9595":"verb","9596":"à¸´","9597":"ì¶","9598":"osit","9599":"revealed","9600":"tat","9601":"tied","9602":"á»ģ","9603":"animation","9604":"roles","9605":"ìĬ¤í","9606":"versions","9607":"ÑĩÐ¸ÑĤ","9608":"tasks","9609":"¯¼","9610":"resc","9611":"she","9612":"loose","9613":"cá»","9614":"coisa","9615":"alert","9616":"nin","9617":"SAM","9618":"trabaj","9619":"irus","9620":"TH","9621":"Æ¡","9622":"ogether","9623":"Tai","9624":"figures","9625":"×Ĳ×ª","9626":"creep","9627":"investigation","9628":"recommended","9629":"Ak","9630":"residents","9631":"ÑģÑĤÐ²Ð¾","9632":"sect","9633":"Ð°Ð½Ð¸Ðµ","9634":"minds","9635":"uing","9636":"å±","9637":"owing","9638":"nog","9639":"raz","9640":"Ø§Ø±","9641":"quot","9642":"Ð¸Ñħ","9643":"sed","9644":"applaud","9645":"coverage","9646":"vol","9647":"Rec","9648":"ÄĽ","9649":"Ð²ÑģÑĳ","9650":"expecting","9651":"operate","9652":"conver","9653":"Such","9654":"Rad","9655":"Prime","9656":"purple","9657":"2010","9658":"ìķĪë","9659":"exem","9660":"comparison","9661":"landscape","9662":"neither","9663":"Eh","9664":"ëħ","9665":"stomach","9666":"caso","9667":"Ã¢n","9668":"percentage","9669":"wich","9670":"itan","9671":"kl","9672":"expans","9673":"Ø§ÙĦÙħ","9674":"occasion","9675":"rets","9676":"igning","9677":"kilomet","9678":"è·Ł","9679":"gust","9680":"cze","9681":"urban","9682":"agric","9683":"assistance","9684":"surf","9685":"imeter","9686":"petit","9687":"assessment","9688":"manual","9689":"improved","9690":"bst","9691":"pilot","9692":"Mars","9693":"viele","9694":"Congratulations","9695":"argue","9696":"wirklich","9697":"clicking","9698":"RIS","9699":"logo","9700":"outcome","9701":"Central","9702":"Ji","9703":"gaming","9704":"conserv","9705":"ultimate","9706":"Ve","9707":"Wal","9708":"aro","9709":"æĦŁ","9710":"star","9711":"consumer","9712":"traveling","9713":"imer","9714":"1000","9715":"Ð½Ð¸Ðº","9716":"principal","9717":"sake","9718":"ÑĸÐ²","9719":"mouse","9720":"arios","9721":"relation","9722":"èĩª","9723":"moral","9724":"åķ¦","9725":"theta","9726":"wy","9727":"kam","9728":"eig","9729":"golden","9730":"×¤","9731":"ampl","9732":"vu","9733":"str","9734":"rors","9735":"whereas","9736":"izar","9737":"administr","9738":"nÃ³s","9739":"Pret","9740":"Acad","9741":"anging","9742":"bage","9743":"Ã©tait","9744":"uri","9745":"healing","9746":"tipo","9747":"marry","9748":"ÑĥÐ²","9749":"estate","9750":"uu","9751":"ìĶ","9752":"Best","9753":"suffer","9754":"194","9755":"bacter","9756":"ÐĴÐ¾ÑĤ","9757":"Om","9758":"dz","9759":"è¶","9760":"ì¦","9761":"oldu","9762":"physically","9763":"Louis","9764":"etime","9765":"case","9766":"pier","9767":"ìłľ","9768":"van","9769":"assets","9770":"ëģ","9771":"vet","9772":"Ð¸Ð±","9773":"promote","9774":"congrat","9775":"uesday","9776":"duty","9777":"Video","9778":"Ø®","9779":"Johnson","9780":"ktion","9781":"VocÃª","9782":"ãĢĭ","9783":"ai","9784":"annual","9785":"Josh","9786":"itte","9787":"JO","9788":"slides","9789":"anc","9790":"¹Ħ","9791":"teen","9792":"carrying","9793":"lymp","9794":"eding","9795":"fro","9796":"admit","9797":"rer","9798":"officials","9799":"ptions","9800":"gal","9801":"heute","9802":"voices","9803":"balls","9804":"guests","9805":"anner","9806":"ãĢĬ","9807":"isher","9808":"MR","9809":"Richard","9810":"roughly","9811":"lÄ±","9812":"victory","9813":"algun","9814":"Mrs","9815":"ÅĽcie","9816":"Uk","9817":"ey","9818":"Wars","9819":"branch","9820":"asty","9821":"Prince","9822":"ÐµÐºÑĤ","9823":"recognized","9824":"mucho","9825":"Leave","9826":"connect","9827":"spell","9828":"touched","9829":"agenda","9830":"è¾","9831":"aria","9832":"Kong","9833":"oga","9834":"parameters","9835":"ëĭ¤ë","9836":"instant","9837":"regul","9838":"Con","9839":"editor","9840":"Dist","9841":"unknown","9842":"punish","9843":"expectations","9844":"crypt","9845":"divide","9846":"aken","9847":"Mess","9848":"hyper","9849":"Project","9850":"iki","9851":"agora","9852":"abuse","9853":"causing","9854":"convin","9855":"LA","9856":"concentration","9857":"breaks","9858":"urer","9859":"concrete","9860":"formal","9861":"beta","9862":"itors","9863":"Champ","9864":"heading","9865":"Blo","9866":"prend","9867":"Senate","9868":"adventure","9869":"oso","9870":"opens","9871":"PLAYING","9872":"SU","9873":"uren","9874":"ikt","9875":"Ð»ÑİÐ±","9876":"Follow","9877":"Biden","9878":"eln","9879":"Sky","9880":"eting","9881":"Ext","9882":"Ð½ÑĥÑİ","9883":"ìĻľ","9884":"shr","9885":"ella","9886":"Div","9887":"transformation","9888":"household","9889":"etry","9890":"è¡","9891":"Desp","9892":"courage","9893":"parking","9894":"ettÃ¤","9895":"cal","9896":"lyn","9897":"laid","9898":"tries","9899":"irts","9900":"iga","9901":"recall","9902":"ifier","9903":"ÏģÎ±","9904":"aan","9905":"buttons","9906":"reaching","9907":"ê·¼ëį°","9908":"spark","9909":"Social","9910":"ÐµÑīÐµ","9911":"canal","9912":"criter","9913":"ktÃ³ry","9914":"tenemos","9915":"Ĥ¬","9916":"Ð½ÐµÑĤ","9917":"tube","9918":"acles","9919":"Ð¸ÑĪ","9920":"deÄŁil","9921":"stamp","9922":"infl","9923":"ahora","9924":"trail","9925":"mixture","9926":"Roll","9927":"routine","9928":"county","9929":"enjoying","9930":"Ð½Ð¾ÑģÑĤÑĮ","9931":"eres","9932":"purposes","9933":"Santa","9934":"breast","9935":"Ã¤ng","9936":"writer","9937":"åĮ","9938":"ÑĢÐ¾","9939":"nem","9940":"icos","9941":"Ð°ÑģÑĤ","9942":"detailed","9943":"reverse","9944":"Ready","9945":"distract","9946":"Alors","9947":"utter","9948":"deserve","9949":"Ron","9950":"Ð½Ð¾Ð¼","9951":"observ","9952":"logic","9953":"Py","9954":"Kevin","9955":"ãģĿãģĨ","9956":"¥´","9957":"ÙĬÙĨ","9958":"ska","9959":"tact","9960":"holiday","9961":"bump","9962":"Ð¼Ð¾Ð³","9963":"deix","9964":"íħ","9965":"worship","9966":"Cl","9967":"suck","9968":"ÑģÐµÐ±","9969":"applause","9970":"Ep","9971":"Ð¼Ð¾","9972":"patch","9973":"áºŃ","9974":"ladies","9975":"broadcast","9976":"illeg","9977":"narrative","9978":"ossa","9979":"ARRATOR","9980":"sang","9981":"movements","9982":"partnership","9983":"organized","9984":"node","9985":"estyle","9986":"Meg","9987":"industrial","9988":"gol","9989":"boring","9990":"åĬł","9991":"ãģĶ","9992":"cuts","9993":"recon","9994":"asa","9995":"impression","9996":"ìļ´","9997":"gie","9998":"MA","9999":"Ĩµ","10000":"editing","10001":"ront","10002":"follows","10003":"Italian","10004":"ÑĢÐ¾Ð´","10005":"ê°ĻìĿĢ","10006":"ë°©","10007":"particles","10008":"Board","10009":"×Ļ×ª","10010":"jun","10011":"ronic","10012":"ej","10013":"ÏĦÎ·","10014":"×ķ×ĵ","10015":"cion","10016":"itty","10017":"Tuesday","10018":"umes","10019":"Prot","10020":"eder","10021":"pessoas","10022":"Ð½Ð¾Ð²","10023":"skip","10024":"objective","10025":"ÃŃas","10026":"desk","10027":"Looks","10028":"unden","10029":"primarily","10030":"imento","10031":"reporting","10032":"hace","10033":"checked","10034":"éĺ","10035":"ë³´ë","10036":"smells","10037":"actors","10038":"Asia","10039":"ilÃł","10040":"receiving","10041":"taxes","10042":"grace","10043":"competitive","10044":"division","10045":"esper","10046":"wheels","10047":"kommt","10048":"tremendous","10049":"espe","10050":"...)","10051":"ìŀħ","10052":"listed","10053":"Ã¤ll","10054":"unus","10055":"Holly","10056":"guidance","10057":"cub","10058":"intellect","10059":"Ð±ÑĭÐ»","10060":"regardless","10061":"Stan","10062":"æ²¡","10063":"conclusion","10064":"acaÄŁ","10065":"lol","10066":"Bat","10067":"manifest","10068":"Chief","10069":"shame","10070":"outcomes","10071":"mail","10072":"kur","10073":"Î¹Îº","10074":"etz","10075":"preparing","10076":"27","10077":"Queen","10078":"à®³","10079":"ë¹Ħ","10080":"tiss","10081":"consciousness","10082":"pants","10083":"melt","10084":"ucht","10085":"inh","10086":"ìĽĮ","10087":"votre","10088":"module","10089":"owy","10090":"monster","10091":"ëĨ","10092":"electronic","10093":"centre","10094":"stops","10095":"tou","10096":"ëŃ","10097":"lamb","10098":"consequences","10099":"straw","10100":"imper","10101":"extend","10102":"ãģ£ãģŁ","10103":"answered","10104":"Mah","10105":"LAURA","10106":"ifting","10107":"uate","10108":"åħĪ","10109":"USB","10110":"Andrew","10111":"ãĤ«","10112":"Fred","10113":"DE","10114":"Georg","10115":"ç»","10116":"Ã¬nh","10117":"drawn","10118":"lips","10119":"bir","10120":"mayor","10121":"imi","10122":"encore","10123":"åĲĥ","10124":"fortable","10125":"ursday","10126":"Form","10127":"blame","10128":"shower","10129":"container","10130":"sters","10131":"udes","10132":"Tay","10133":"à¸¥","10134":"ìĺĪ","10135":"vom","10136":"bass","10137":"Lab","10138":"issa","10139":"dimension","10140":"executive","10141":"Rom","10142":"ê²ĮìļĶ","10143":"Doctor","10144":"delivered","10145":"gang","10146":"cer","10147":"pit","10148":"eli","10149":"extraord","10150":"jar","10151":"deriv","10152":"illness","10153":"guns","10154":"2011","10155":"airport","10156":"Ðķ","10157":"attitude","10158":"grat","10159":"Wr","10160":"NARRATOR","10161":"ìļĶ","10162":"renew","10163":"cosa","10164":"controlled","10165":"ommy","10166":"onds","10167":"ese","10168":"Ã¤ch","10169":"vend","10170":"dam","10171":"argu","10172":"acceler","10173":"nail","10174":"iene","10175":"ìĥĿ","10176":"encont","10177":"esearch","10178":"é¡","10179":"goods","10180":"fishing","10181":"APPLAUSE","10182":"NAS","10183":"ection","10184":"temple","10185":"liche","10186":"keyboard","10187":"çŃī","10188":"desde","10189":"educational","10190":"Night","10191":"33","10192":"breathe","10193":"lichen","10194":"thm","10195":"iÃ¨re","10196":"à¸ļ","10197":"larÄ±","10198":"ali","10199":"compos","10200":"sensor","10201":"ë¶Ģë","10202":"newsp","10203":"Bund","10204":"Mi","10205":"performing","10206":"drum","10207":"BE","10208":"pork","10209":"coal","10210":"enger","10211":"ram","10212":"ë²Ī","10213":"çĦ¶å¾Į","10214":"Ð¸ÑĢÐ¾Ð²","10215":"Pop","10216":"phones","10217":"facil","10218":"tracks","10219":"onte","10220":"organic","10221":"dialogue","10222":"Having","10223":"Post","10224":"payment","10225":"array","10226":"intended","10227":"Ãºs","10228":"bars","10229":"reviews","10230":"lands","10231":"kingdom","10232":"stages","10233":"mountains","10234":"dun","10235":"decir","10236":"Äį","10237":"banks","10238":"throwing","10239":"ëª»","10240":"anger","10241":"ÑģÐµÐ¹ÑĩÐ°Ñģ","10242":"distur","10243":"humanity","10244":"eles","10245":"shoulders","10246":"Perfect","10247":"fancy","10248":"brilliant","10249":"inspiration","10250":"hmm","10251":"å¿«","10252":"lid","10253":"UL","10254":"mÃ¥","10255":"indi","10256":"èĪ","10257":"shield","10258":"ìĺ¤ë","10259":"CT","10260":"agine","10261":"uber","10262":"BR","10263":"questo","10264":"Ð·Ð°Ðº","10265":"Know","10266":"tang","10267":"íķ©ëĭĪëĭ¤","10268":"barely","10269":"SE","10270":"margin","10271":"rei","10272":"Ð°ÑĤÐµÐ»ÑĮ","10273":"contr","10274":"vÃł","10275":"legit","10276":"Ðĺ","10277":"kins","10278":"ÑĢÐµÐ´","10279":"Ash","10280":"advis","10281":"Greek","10282":"ÑĥÐº","10283":"shake","10284":"idades","10285":"Ð°ÑģÑĮ","10286":"convention","10287":"contest","10288":"MS","10289":"Year","10290":"representation","10291":"inden","10292":"endar","10293":"prost","10294":"Human","10295":"Cy","10296":"anged","10297":"PA","10298":"axis","10299":"theore","10300":"atz","10301":"íķĺê³ł","10302":"els","10303":"Research","10304":"benefic","10305":"density","10306":"indo","10307":"ìľ¼","10308":"imdi","10309":"researchers","10310":"ê±°ëĵł","10311":"ighs","10312":"dan","10313":"dice","10314":"maar","10315":"submit","10316":"dumb","10317":"bij","10318":"away","10319":"Pass","10320":"extension","10321":"crush","10322":"covering","10323":"edi","10324":"born","10325":"inations","10326":"ÑģÐ´ÐµÐ»","10327":"Ð²ÐµÑĢ","10328":"Otherwise","10329":"istant","10330":"Ð°Ð¹ÑĤÐµ","10331":"tanto","10332":"performed","10333":"Ð·Ð°Ð¿","10334":"alo","10335":"Foundation","10336":"protocol","10337":"Zo","10338":"may","10339":"hack","10340":"buddy","10341":"made","10342":"ads","10343":"fascinating","10344":"equivalent","10345":"gel","10346":"arc","10347":"ÑĩÐµÐ»Ð¾Ð²","10348":"proposed","10349":"notre","10350":"anges","10351":"counsel","10352":"alla","10353":"31","10354":"weet","10355":"ÈĻ","10356":"electricity","10357":"tox","10358":"ÅĤad","10359":"ì´","10360":"difficulty","10361":"ł×Ļ","10362":"nesday","10363":"Ð¸ÑģÑĮ","10364":"alleg","10365":"GO","10366":"quit","10367":"Herr","10368":"estÃ¡n","10369":"girlfriend","10370":"teng","10371":"ificial","10372":"Jam","10373":"cancel","10374":"frequently","10375":"IV","10376":"å¯¦","10377":"closing","10378":"decade","10379":"represented","10380":"Canad","10381":"ÐºÐ¾ÑĤÐ¾ÑĢÑĭÐµ","10382":"estamos","10383":"Thursday","10384":"Ga","10385":"Live","10386":"lem","10387":"bble","10388":"SON","10389":"2008","10390":"dich","10391":"Awesome","10392":"concepts","10393":"PEAK","10394":"literature","10395":"Olymp","10396":"Ð»Ð°Ð´","10397":"nost","10398":"vit","10399":"Enter","10400":"orders","10401":"icking","10402":"niej","10403":"euch","10404":"Though","10405":"bags","10406":"limits","10407":"stake","10408":"ĥ¥","10409":"oc","10410":"Vis","10411":"120","10412":"nue","10413":"conce","10414":"disag","10415":"ç¨","10416":"anticip","10417":"łĪ","10418":"sl","10419":"voting","10420":"exposure","10421":"Community","10422":"Justice","10423":"orney","10424":"szyst","10425":"fried","10426":"ìĭľë","10427":"Win","10428":"@","10429":"Hopefully","10430":"esz","10431":"monde","10432":"combine","10433":"gment","10434":"recommendations","10435":"pregnant","10436":"ìĭĿ","10437":"raf","10438":"lu","10439":"èĢģ","10440":"ä»Ģä¹Ī","10441":"door","10442":"Ð°Ð·ÑĭÐ²","10443":"uego","10444":"improvement","10445":"trim","10446":"eigen","10447":"approximately","10448":"Ð²Ð°Ð¼","10449":"awa","10450":"ÑģÐ¾Ð±","10451":"coron","10452":"ongoing","10453":"hes","10454":"injury","10455":"frank","10456":"kadar","10457":"rency","10458":"Color","10459":"Gru","10460":"dip","10461":"ÑĢÑĭ","10462":"tears","10463":"gt","10464":"PD","10465":"pause","10466":"osc","10467":"usted","10468":"Woo","10469":"wiÄĻ","10470":"è¦ĭ","10471":"denn","10472":"Pet","10473":"overcome","10474":"ëĤ´ê°Ģ","10475":"Move","10476":"license","10477":"repeated","10478":"à¯ĩ","10479":"categories","10480":"noodles","10481":"flood","10482":"Mass","10483":"nuts","10484":"Jess","10485":"Ih","10486":"chances","10487":"Ĳĺ","10488":"donde","10489":"IG","10490":"andere","10491":"bones","10492":"ìŀĳ","10493":"efficiency","10494":"moder","10495":"roat","10496":"ìĿ´ê²Į","10497":"iller","10498":"omega","10499":"Ð¿Ð¾Ð²","10500":"Group","10501":"producing","10502":"amo","10503":"participants","10504":"upp","10505":"ifice","10506":"fortun","10507":"ietnam","10508":"acak","10509":"Ko","10510":"miÅŁ","10511":"jail","10512":"Jones","10513":"ÅĽmy","10514":"Deuts","10515":"briefly","10516":"Tal","10517":"Perhaps","10518":"Rub","10519":"Kn","10520":"ëĭ¤ëĬĶ","10521":"rÃ©","10522":"vocÃªs","10523":"Charles","10524":"ÐµÑĤÐµ","10525":"riers","10526":"heal","10527":"antee","10528":"democracy","10529":"loan","10530":"chef","10531":"ÑıÐ¼","10532":"uncomfortable","10533":"etern","10534":"apping","10535":"repair","10536":"rot","10537":"Tar","10538":"covers","10539":"oming","10540":"Eth","10541":"ÎŃ","10542":"ÑĩÐ½Ð¾","10543":"afterwards","10544":"Ð²ÐµÑĢ","10545":"daha","10546":"knees","10547":"ordinary","10548":"Ã¼l","10549":"gas","10550":"ticket","10551":"ìłĢëĬĶ","10552":"ìŀĪìĬµëĭĪëĭ¤","10553":"chte","10554":"Mr","10555":"sist","10556":"hui","10557":"ê·¸ë","10558":"ìĹ¬","10559":"vary","10560":"memor","10561":"controller","10562":"bÄĻdzie","10563":"minister","10564":"×Ĵ","10565":"flow","10566":"AH","10567":"tower","10568":"çĲ","10569":"scar","10570":"æĥħ","10571":"Pen","10572":"paÃŃs","10573":"×ĺ","10574":"ìĿ¸ë","10575":"energ","10576":"sword","10577":"papers","10578":"Ð¸Ð»Ð°","10579":"Wednesday","10580":"Force","10581":"extraordinary","10582":"Lake","10583":"ê°Ģë","10584":"Beaut","10585":"reasonable","10586":"contribute","10587":"pleased","10588":"updated","10589":"piÃ¹","10590":"elo","10591":"significantly","10592":"bot","10593":"generations","10594":"protected","10595":"åĵĪ","10596":"hiding","10597":"Ill","10598":"neutral","10599":"],","10600":"ÏĦÎ¿","10601":"tongue","10602":"Thank","10603":"ê³Ħ","10604":"pays","10605":"Î¯Î½","10606":"apple","10607":"01","10608":"erk","10609":"iera","10610":"jeg","10611":"Subscribe","10612":"theater","10613":"strongly","10614":"ìĨĮ","10615":"Ð¿ÑĢÐ°Ð²","10616":"ucky","10617":"Jin","10618":"kward","10619":"ê±´","10620":"opponent","10621":"SO","10622":"holy","10623":"filling","10624":":]","10625":"hij","10626":"Ðľ","10627":"biss","10628":"blend","10629":"implic","10630":"ì½","10631":"lleicht","10632":"ÙĬØ©","10633":"asant","10634":"erte","10635":"Same","10636":"interior","10637":"Se","10638":"bench","10639":"poco","10640":"marks","10641":"wins","10642":"åĸĶ","10643":"Î³","10644":"distinct","10645":"Asian","10646":"molec","10647":"Jackson","10648":"east","10649":"physics","10650":"imal","10651":"peak","10652":"arian","10653":"eps","10654":"neat","10655":"Ð²Ð°Ñģ","10656":"urning","10657":"synth","10658":"reveal","10659":"Åº","10660":"gon","10661":"nis","10662":"ativ","10663":"Las","10664":"py","10665":"Majesty","10666":"Valley","10667":"enf","10668":"gens","10669":"roots","10670":"eze","10671":"bet","10672":"acts","10673":"éļ","10674":"èĲ","10675":"philosophy","10676":"matches","10677":"Ŀi","10678":"juÅ¼","10679":"desper","10680":"Education","10681":"spots","10682":"regions","10683":"Ar","10684":"Nam","10685":"een","10686":"diagram","10687":"rely","10688":"tens","10689":"dating","10690":"coat","10691":"Hor","10692":"acknowledge","10693":"Pretty","10694":"Ð¿Ð¾Ð¿","10695":"voir","10696":"favourite","10697":"moÅ¼","10698":"km","10699":"DO","10700":"fert","10701":"ëıĦ","10702":"Pac","10703":"font","10704":"finds","10705":"Italy","10706":"ÐºÐ¾Ð»","10707":"compass","10708":"ë³","10709":"liament","10710":"notion","10711":"inject","10712":"wisdom","10713":"Ãľ","10714":"Moon","10715":"Business","10716":"rics","10717":"Yout","10718":"forgive","10719":"finance","10720":"ilo","10721":"Ø£","10722":"ahl","10723":"demo","10724":"climb","10725":"export","10726":"åł","10727":"successfully","10728":"Fer","10729":"pected","10730":"dem","10731":"retire","10732":"laptop","10733":"spir","10734":"Association","10735":"Ð³Ð»","10736":"Sel","10737":"íķľë","10738":"employee","10739":"molt","10740":"RL","10741":"Ð¯","10742":"contra","10743":"ug","10744":"Ball","10745":"Java","10746":"Ã©rie","10747":"procedure","10748":"grid","10749":"ëĬĲë","10750":"belt","10751":"ÑįÑĤÐ¾Ð³Ð¾","10752":"urd","10753":"compreh","10754":"developer","10755":"ÑįÑĤÐ¾Ð¼","10756":"åĺ","10757":"cr","10758":"ëĵ","10759":"spoken","10760":"rence","10761":"termin","10762":"aggressive","10763":"bisschen","10764":"hasta","10765":"Brian","10766":"Commission","10767":"Yu","10768":"promised","10769":"equity","10770":"iko","10771":"verty","10772":"replaced","10773":"Help","10774":"pose","10775":"Middle","10776":"kim","10777":"mein","10778":"Councill","10779":"ÐĴÑģ","10780":"oro","10781":"Bern","10782":"bez","10783":"analyt","10784":"angen","10785":"ìĭ¶","10786":"Glo","10787":"quad","10788":"ÑĤÐ°","10789":"speaks","10790":"ìĺĪìļĶ","10791":"ìĹ¬ëŁ¬ë","10792":"free","10793":"Ð½Ñĸ","10794":"rich","10795":"ë¯¸","10796":"Dies","10797":"abb","10798":"¥¸","10799":"depression","10800":"retail","10801":"Ħëĵ¤","10802":"Vous","10803":"Latin","10804":"á¹","10805":"ì¢ĭìķĦ","10806":"tort","10807":"computers","10808":"searching","10809":"tub","10810":"atell","10811":"merc","10812":"glasses","10813":"person","10814":"dishes","10815":"guarantee","10816":"meg","10817":"sm","10818":"Walk","10819":"ìľ¼ë©´","10820":"folder","10821":"Mit","10822":"timing","10823":"abst","10824":"Log","10825":"ãĤ¯","10826":"approved","10827":"USA","10828":"Ð²ÐµÑĤ","10829":"wise","10830":"essed","10831":"doub","10832":"resident","10833":"generated","10834":"stays","10835":"explanation","10836":"poison","10837":"atre","10838":"insane","10839":"referred","10840":"aires","10841":"TRA","10842":"sei","10843":"innoc","10844":"Ah","10845":"mant","10846":"hus","10847":"outer","10848":"geb","10849":"oice","10850":"discussing","10851":"convenient","10852":"__","10853":"avoir","10854":"shapes","10855":"gray","10856":"dentro","10857":"macht","10858":"195","10859":"Ùı","10860":"adds","10861":"uting","10862":"capabilities","10863":"sections","10864":"tune","10865":"Cause","10866":"arde","10867":"ÑģÐºÐ°Ð·","10868":"avirus","10869":"RE","10870":"tuned","10871":"leaf","10872":"terior","10873":"Captain","10874":"Ø¬","10875":"choosing","10876":"hin","10877":"gging","10878":"viet","10879":"regret","10880":"26","10881":"ondern","10882":"bonus","10883":"Ray","10884":"As","10885":"torn","10886":"Hier","10887":"EU","10888":"risks","10889":"ama","10890":"Yet","10891":"characteristics","10892":"ê°Ĳ","10893":"Senator","10894":"Vamos","10895":"rose","10896":"corporate","10897":"ghan","10898":"centers","10899":"stairs","10900":"nit","10901":"unusual","10902":"Tony","10903":"GR","10904":"Wild","10905":"Similar","10906":"todas","10907":"åģļ","10908":"horizont","10909":"mel","10910":"strict","10911":"cual","10912":"writ","10913":"extended","10914":"íķĺëĬĶ","10915":"relief","10916":"onion","10917":"babies","10918":"difer","10919":"integrated","10920":"Ã¼zik","10921":"eping","10922":"----","10923":"mens","10924":"strategic","10925":"finitely","10926":"eigentlich","10927":"Who","10928":"åľ°","10929":"{","10930":"ä½ł","10931":"Tri","10932":"pointed","10933":"ðĿ","10934":"nament","10935":"ÐµÑĨ","10936":"pride","10937":"Republican","10938":"samples","10939":"domestic","10940":"LY","10941":"vez","10942":"webinar","10943":"Ø§Ùħ","10944":"enh","10945":"suggested","10946":"meine","10947":"pued","10948":"oren","10949":"rir","10950":"heavily","10951":"instruction","10952":"microphone","10953":"igual","10954":"Ira","10955":"vulnerable","10956":"Virginia","10957":"continuous","10958":"poverty","10959":"blade","10960":"ä¸ī","10961":"relate","10962":"cara","10963":"Going","10964":"regional","10965":"Fuck","10966":"tow","10967":"Museum","10968":"rants","10969":"Ð±ÐµÐ·","10970":"laim","10971":"champion","10972":"tle","10973":"ÃŃn","10974":"encia","10975":"diesem","10976":"Dig","10977":"mates","10978":"investing","10979":"Jordan","10980":"integration","10981":"íİ","10982":"à¸«","10983":"ensus","10984":"Arch","10985":"pencil","10986":"Ð°Ð»ÑĮÐ½Ð¾","10987":"issen","10988":"Ka","10989":"rocks","10990":"rating","10991":"refuge","10992":"apr","10993":"eted","10994":"assistant","10995":"meaningful","10996":"permanent","10997":"hill","10998":"wszyst","10999":"wound","11000":"Atl","11001":"lake","11002":"Fort","11003":"è¬Ŀè¬Ŀ","11004":"reduction","11005":"viv","11006":"sour","11007":"ecos","11008":"haz","11009":"steal","11010":"myster","11011":"ÐļÐ°Ðº","11012":"ÑįÑĤÐ¸","11013":"Vietnam","11014":"antes","11015":"connecting","11016":"éĸĵ","11017":"Dave","11018":"bÃ¶yle","11019":"Cast","11020":"Le","11021":"cul","11022":"genre","11023":"ë§Ĳ","11024":"complain","11025":"hurry","11026":"arte","11027":"greg","11028":"monitoring","11029":"desert","11030":"ÑģÐ¾Ð²","11031":"eling","11032":"Supreme","11033":"gibi","11034":"larg","11035":"nations","11036":"Tok","11037":"needle","11038":"æµ","11039":"asleep","11040":"comun","11041":"Jews","11042":"achieved","11043":"exit","11044":"diseases","11045":"lines","11046":"ãģĭãĤī","11047":"riends","11048":"rect","11049":"scan","11050":"ãģ¯ãģĦ","11051":"hurts","11052":"zÄĻ","11053":"Looking","11054":"ãĤ·","11055":"íĴ","11056":"ultural","11057":"á»ĵ","11058":"inent","11059":"pues","11060":"cheering","11061":"§Ģ","11062":"agger","11063":"ada","11064":"Laughter","11065":"Women","11066":"è£¡","11067":"è«","11068":"occurred","11069":"seats","11070":"èĢĮ","11071":"empower","11072":"unu","11073":"elling","11074":"BER","11075":"ensional","11076":"console","11077":"ashing","11078":"einmal","11079":"fare","11080":"ëı¼","11081":"sessions","11082":"ÙĲ","11083":"ridiculous","11084":"ÃŃan","11085":"Henry","11086":"Hol","11087":"collected","11088":"discussions","11089":"De","11090":"disability","11091":"íĽ","11092":"subscribers","11093":"irgend","11094":"fel","11095":"directions","11096":"manufacturing","11097":"Rod","11098":"ìĸĺ","11099":"à¸Ĺ","11100":"æĺİ","11101":"criteria","11102":"mold","11103":"è©±","11104":"entering","11105":"rij","11106":"isen","11107":"Para","11108":"ieve","11109":"charged","11110":"jou","11111":"cats","11112":"Ð»ÐµÐ´","11113":"adays","11114":"Ð°Ð½Ð¾Ð²","11115":"jÄĻ","11116":"vation","11117":"astron","11118":"itals","11119":"Brand","11120":"Kan","11121":"plain","11122":"anderen","11123":"ande","11124":"ÑıÐ·","11125":"toler","11126":"ÅĤem","11127":"prÃ©","11128":"Ð¼Ð¾ÑĤÑĢ","11129":"agement","11130":"uct","11131":"chÃ©","11132":"Ener","11133":"ajÄħ","11134":"íķ´ë","11135":"sta","11136":"rings","11137":"toilet","11138":"Cra","11139":"experiencing","11140":"slip","11141":"sandwich","11142":"Using","11143":"spectrum","11144":"Ros","11145":"apse","11146":"Jay","11147":"Ð¼Ñĥ","11148":"æ³ķ","11149":"Ex","11150":"recognition","11151":"Didn","11152":"uda","11153":"aje","11154":"estly","11155":"femin","11156":"iture","11157":"ÑĢÐ°ÑĤ","11158":"hire","11159":"nowhere","11160":"ä½į","11161":"áº§","11162":"wing","11163":"sav","11164":"Security","11165":"rural","11166":"Fun","11167":"ayer","11168":"accus","11169":"mm","11170":"Joseph","11171":"screens","11172":"borrow","11173":"swing","11174":"48","11175":"touching","11176":"this","11177":"intendo","11178":"éĥ","11179":"Ðł","11180":"Scotland","11181":"Jason","11182":"Ven","11183":"exception","11184":"nearby","11185":"browser","11186":"angers","11187":"Sin","11188":"ÏĢÎ¿","11189":"ä½Ĩæĺ¯","11190":"ospel","11191":"wurde","11192":"drunk","11193":"íļ","11194":"ìĨį","11195":"ãĥī","11196":"ìĬ¤í","11197":"Lie","11198":"oco","11199":"League","11200":"ignore","11201":":)","11202":"landing","11203":"Ø¹ÙĦ","11204":"Tag","11205":"28","11206":"draft","11207":"aer","11208":"ê·¸ëĥ¥","11209":"pense","11210":"Ð´Ð°Ð¶Ðµ","11211":"bedroom","11212":"naj","11213":"ì§Ģê³ł","11214":"igenous","11215":"deals","11216":"ello","11217":"äºĮ","11218":"posit","11219":"ê»","11220":"visited","11221":"ifies","11222":"premi","11223":"cant","11224":"Rick","11225":"raising","11226":"permission","11227":"publ","11228":"unci","11229":"bend","11230":"champions","11231":"die","11232":"awful","11233":"jumping","11234":"lleg","11235":"sustainable","11236":"Tot","11237":"candy","11238":"åĢĻ","11239":"satisfied","11240":"pipe","11241":"cock","11242":"Ø¶","11243":"stone","11244":"momentum","11245":"ÐĿÐ°","11246":"alors","11247":"returns","11248":"ammen","11249":"ç®","11250":"ÑĭÐ¼","11251":"awn","11252":"otted","11253":"wollen","11254":"icted","11255":"candidates","11256":"Lady","11257":"yield","11258":"maintenance","11259":"ffect","11260":"expansion","11261":"LED","11262":"darkness","11263":"outfit","11264":"ìķĪ","11265":"Ð¸ÑģÐ¿","11266":"ruption","11267":"ãģĦãģ¾ãģĻ","11268":"engaging","11269":"insight","11270":"Always","11271":"gef","11272":"rak","11273":"pix","11274":"è¦ºå¾Ĺ","11275":"quantity","11276":"ink","11277":"Kingdom","11278":"cort","11279":"å¸¸","11280":"governments","11281":"protest","11282":"poon","11283":"ÑĤÐ¾Ð³Ð¾","11284":"å®ĥ","11285":"uchen","11286":"quality","11287":"Porque","11288":"Club","11289":"rit","11290":"articles","11291":"BI","11292":"igible","11293":"disaster","11294":"Ð¸Ð³","11295":"Ð½Ð¸Ðº","11296":"ÙĩØ§","11297":"ë¥¼","11298":"aret","11299":"unable","11300":"Ã®","11301":"erst","11302":"×ł","11303":"vard","11304":"annoying","11305":"Kir","11306":"ÐµÑĢÐ¶","11307":"ennis","11308":"uncertain","11309":"36","11310":"Ã¶s","11311":"ecosystem","11312":"zed","11313":"jÃł","11314":"sun","11315":"ìĸ´ìĦľ","11316":"Å¼eby","11317":"maps","11318":"ëĤĺ","11319":"åħ¨","11320":"Justin","11321":"trash","11322":"enormous","11323":"stated","11324":"brands","11325":"yout","11326":"ÑĩÐµÐ»Ð¾Ð²ÐµÐº","11327":"Matth","11328":"transportation","11329":"legislation","11330":"providers","11331":"ØŃ","11332":"magazine","11333":"sehen","11334":"Despite","11335":"passes","11336":"æĪĲ","11337":"alter","11338":"adan","11339":"farmers","11340":"è°¢","11341":"confirmed","11342":"esa","11343":"itos","11344":"roads","11345":"VIS","11346":"worker","11347":"designs","11348":"Soviet","11349":"brid","11350":"practicing","11351":"ë¶Ģ","11352":"Sea","11353":"ãĥ©","11354":"Ð¿ÑĢÐ¾Ð´","11355":"chill","11356":"lemon","11357":"ìĹĲëĬĶ","11358":"flexible","11359":"Excuse","11360":"territory","11361":"åķı","11362":"ãģ¿","11363":"lux","11364":"lifetime","11365":"distingu","11366":"Times","11367":"gross","11368":"enz","11369":"scroll","11370":"mÄ±ÅŁ","11371":"cip","11372":"£¼","11373":"DP","11374":"publish","11375":"eben","11376":"regist","11377":"edition","11378":"LE","11379":"charging","11380":"utation","11381":"yrics","11382":"idas","11383":"Î¿","11384":"ÐºÐ¾ÑĢ","11385":"Ton","11386":"çĽ®","11387":"whoever","11388":"Fox","11389":"æīĭ","11390":"ê±°ëĵłìļĶ","11391":"fought","11392":"drill","11393":"Afghan","11394":"~!","11395":"Too","11396":"secondary","11397":"rÃ¤","11398":"Head","11399":"innen","11400":"yarn","11401":"Ð½Ð°Ð¼","11402":"width","11403":"engineer","11404":"iÄħ","11405":"wings","11406":"ëķĮë¬¸","11407":"trauma","11408":"reprodu","11409":"chip","11410":"passionate","11411":"awkward","11412":"íĬ","11413":"Ð°Ð¶Ð´","11414":"Bitcoin","11415":"khÃ´ng","11416":"rÃ³","11417":"rection","11418":"Ð³Ð´Ðµ","11419":"Usually","11420":"implementation","11421":"gameplay","11422":"mystery","11423":"Ð¾Ðº","11424":"aÃ±os","11425":"andy","11426":"Ð¸Ð¼Ð¸","11427":"privacy","11428":"aco","11429":"ãĤģ","11430":"dump","11431":"Pay","11432":"dipl","11433":"furn","11434":"ships","11435":"LA","11436":"ÑħÐ¾ÑĢÐ¾ÑĪ","11437":"ec","11438":"drops","11439":"chl","11440":"32","11441":"observe","11442":"Develop","11443":"MÃ¼zik","11444":"annel","11445":"owaÄĩ","11446":"faced","11447":"Ã¡l","11448":"victims","11449":"gifts","11450":"boot","11451":"ÃŁe","11452":"rod","11453":"2009","11454":"Ã¶rt","11455":"universal","11456":"nouve","11457":"boyfriend","11458":"cetera","11459":"ÑģÑĤÐ°","11460":"'S","11461":"nive","11462":"crucial","11463":"surve","11464":"coin","11465":"sondern","11466":"shade","11467":"lugar","11468":"surely","11469":"max","11470":"improving","11471":"åĽłçĤº","11472":"wen","11473":"×ĳ","11474":"ìĸ´ì","11475":"enforcement","11476":"ibl","11477":"liv","11478":"leri","11479":"mejor","11480":"Carolina","11481":"vas","11482":"comprom","11483":"dirt","11484":"upgrade","11485":"Bell","11486":"restaurants","11487":"trap","11488":"teas","11489":"blic","11490":"Greg","11491":"san","11492":"ow","11493":"uest","11494":"proposal","11495":"Ret","11496":"front","11497":"passage","11498":"surrounding","11499":"Ãºlt","11500":"upcoming","11501":"horror","11502":"clothing","11503":"ìķ½","11504":"dil","11505":"rome","11506":"Id","11507":"Road","11508":"ÑįÑĤÐ¾ÑĤ","11509":"chain","11510":"Ð±ÑĭÑĤÑĮ","11511":"Offic","11512":"ÐĿÐµ","11513":"insan","11514":"decrease","11515":"ÑħÐ¾ÑĤ","11516":"build","11517":"Dragon","11518":"åĤ","11519":"investors","11520":"anti","11521":"sacrifice","11522":"troops","11523":"Bad","11524":"password","11525":"constra","11526":"à¸ķ","11527":"Ãĩa","11528":"adow","11529":"through","11530":"ÑĨÐ°","11531":"Can","11532":"candidate","11533":"antib","11534":"ìĹħ","11535":"tasty","11536":"ÙĪÙĨ","11537":"Inf","11538":"Bang","11539":"iÃŁt","11540":"inity","11541":"father","11542":"controvers","11543":"Pak","11544":"ilty","11545":"êµ¬ë","11546":"lighter","11547":"fallen","11548":"zus","11549":"Guard","11550":"cott","11551":"Free","11552":"initiative","11553":"alous","11554":"notification","11555":"Medic","11556":"Committee","11557":"ìĹ°","11558":"Wood","11559":"mush","11560":"ulum","11561":"è²","11562":"ahah","11563":"sufficient","11564":"singer","11565":"ÐºÐ¾Ð¹","11566":"ALI","11567":"Ã¤tt","11568":"PR","11569":"Lar","11570":"cules","11571":"iempo","11572":"unex","11573":"integral","11574":"transmission","11575":"ici","11576":"ÑĥÑħ","11577":"gic","11578":"Nintendo","11579":"Cop","11580":"Trust","11581":"enas","11582":"abilities","11583":"chips","11584":"pat","11585":"anche","11586":"Ð»ÐµÐ½","11587":"approaches","11588":"thor","11589":"sisters","11590":"drivers","11591":"alla","11592":"03","11593":"rubber","11594":"nÃ¥","11595":"ACK","11596":"disappear","11597":"ê°ľ","11598":"compens","11599":"vibr","11600":"ç¬ĳ","11601":"GO","11602":"sizes","11603":"tracking","11604":"íĻĶ","11605":"ìĦ¸","11606":"impacts","11607":"ibil","11608":"fish","11609":"BR","11610":"arrow","11611":"largely","11612":"anny","11613":"lawyer","11614":"æĢİéº¼","11615":"jours","11616":"Úº","11617":"via","11618":"della","11619":"mathemat","11620":"Mine","11621":"Koll","11622":"Ø²","11623":"Cross","11624":"65","11625":"grac","11626":"involves","11627":"delight","11628":"Hollywood","11629":"immediate","11630":"onic","11631":"lado","11632":"bullet","11633":"Note","11634":"unlock","11635":"discount","11636":"rising","11637":"press","11638":"pace","11639":"shorter","11640":"tener","11641":"geon","11642":"managing","11643":"cere","11644":"Chr","11645":"When","11646":"achen","11647":"ìĵ","11648":"Hun","11649":"oft","11650":"250","11651":"ierung","11652":"stabil","11653":"Connect","11654":"yani","11655":"downt","11656":"Î¼Î±","11657":"vocal","11658":"Î½Î±","11659":"lean","11660":"vidÃ©o","11661":"Family","11662":"resent","11663":"amounts","11664":"ì§ģ","11665":"class","11666":"vib","11667":"Av","11668":"arse","11669":"gentlemen","11670":"seeking","11671":"union","11672":"regularly","11673":"æı","11674":"Jahr","11675":"Food","11676":"Problem","11677":"artificial","11678":"Six","11679":"impressed","11680":"tooth","11681":"Kh","11682":"yard","11683":"íķ´","11684":"owned","11685":"ëıĻ","11686":"ì²Ń","11687":"toda","11688":"portfol","11689":"ëĤ¨","11690":"orgeous","11691":"dates","11692":"Ð¾Ð»ÑĮÐ·","11693":"ÐµÑĩÐ½Ð¾","11694":"configuration","11695":"requirement","11696":"belly","11697":"painful","11698":"demonstrate","11699":"gleich","11700":"visiting","11701":"Conf","11702":"dal","11703":"Ùĳ","11704":"amend","11705":"Fur","11706":"æ¯Ķ","11707":"vital","11708":"á»ĭ","11709":"mate","11710":"Ou","11711":"legacy","11712":"usting","11713":"accommod","11714":"quoi","11715":"auen","11716":"lifestyle","11717":"CC","11718":"Ã¤Ã¤n","11719":"arten","11720":"minha","11721":"rÃ³","11722":"ëª¨","11723":"formation","11724":"trailer","11725":"peror","11726":"Ð³ÑĢ","11727":"ud","11728":"zu","11729":"kommen","11730":"cave","11731":"Councillor","11732":"thrown","11733":"tricks","11734":"LAUGHTER","11735":"Academy","11736":"rowd","11737":"¡Ŀ","11738":"ìłĢ","11739":"Imagine","11740":"informed","11741":"roph","11742":"lig","11743":"skull","11744":"abeth","11745":"functional","11746":"erek","11747":"On","11748":"é¦","11749":"ancest","11750":"safely","11751":"HT","11752":"ëĭ¹","11753":"dav","11754":"drives","11755":"Americ","11756":"tire","11757":"sais","11758":"Ã¡ri","11759":"avors","11760":"corresponding","11761":"prÃ©s","11762":"chest","11763":"bacteria","11764":"infection","11765":"usal","11766":"avez","11767":"basketball","11768":"supplies","11769":"expertise","11770":"ł¥","11771":"fa","11772":"tiempo","11773":"Want","11774":"silly","11775":"upp","11776":"elected","11777":"fired","11778":"Ø¯","11779":"universities","11780":"alle","11781":"jacket","11782":"Â°","11783":"trav","11784":"ls","11785":"defeat","11786":"cogn","11787":"equations","11788":"uki","11789":"Sher","11790":"thirty","11791":"streaming","11792":"otros","11793":"Produ","11794":"nej","11795":"designer","11796":"ëĬĲëĤ","11797":"painted","11798":"raine","11799":"mail","11800":"vess","11801":"rhythm","11802":"lesh","11803":"99","11804":"ainda","11805":"chied","11806":"Ã©tait","11807":"affects","11808":"é£","11809":"Find","11810":"Ã©l","11811":"potatoes","11812":"pag","11813":"Ð¿Ð°ÑĢ","11814":"arts","11815":"Nach","11816":"33","11817":"Hard","11818":"Iraq","11819":"opinions","11820":"with","11821":"erman","11822":"Ã½","11823":"èŃ","11824":"SPEAK","11825":"¬¼","11826":"stability","11827":"HE","11828":"captured","11829":"bucks","11830":"masks","11831":"compete","11832":"forgotten","11833":"Ð»ÑİÑĩ","11834":"sequ","11835":"ìĦł","11836":"illion","11837":"graphics","11838":"hub","11839":"ìĹ°","11840":"empor","11841":"crown","11842":"wider","11843":"occurs","11844":"DS","11845":"æģ","11846":"Battle","11847":"ãģªãĤĵ","11848":"dual","11849":"600","11850":"athers","11851":"à¹ģ","11852":"settle","11853":"avait","11854":"dois","11855":"ÐºÐ¸Ñħ","11856":"adores","11857":"Ã³","11858":"nego","11859":"Georgia","11860":"Rog","11861":"divor","11862":"Song","11863":"Special","11864":"mun","11865":"pretend","11866":"MAN","11867":"violent","11868":"besides","11869":"vy","11870":"Naz","11871":"29","11872":"sweat","11873":"zw","11874":"Hu","11875":"Build","11876":"horm","11877":"Card","11878":"ìľł","11879":"recommendation","11880":"called","11881":"stick","11882":"Police","11883":"consumers","11884":"grocer","11885":"stun","11886":"ÐĴÑĭ","11887":"Ð£","11888":"Data","11889":"substant","11890":"irect","11891":"à²","11892":"Ð²Ð·","11893":"Arm","11894":"semester","11895":"Brad","11896":"ours","11897":"ÐºÐ¾ÑĤÐ¾ÑĢÑĭÐ¹","11898":"§a","11899":"grams","11900":"exercises","11901":"75","11902":"swear","11903":"incent","11904":"ÏģÎ¿","11905":"illegal","11906":"ä½ķ","11907":"Damn","11908":"nÃº","11909":"neces","11910":"cuz","11911":"icon","11912":"hors","11913":"Como","11914":"ä½ľ","11915":"ëĳĲ","11916":"overse","11917":"harvest","11918":"threw","11919":"Ð¿Ð¾ÑĤÐ¾Ð¼Ñĥ","11920":"×Ļ×Ķ","11921":"otro","11922":"Ð¿ÐµÑĢÐ²","11923":"scope","11924":"glory","11925":"Michigan","11926":"assuming","11927":"ÑĥÐ´","11928":"bold","11929":"gue","11930":"mother","11931":"waren","11932":"è¬Ľ","11933":"Ø¥","11934":"Kam","11935":"ispiel","11936":"toujours","11937":"constitution","11938":"~","11939":"frankly","11940":"olen","11941":"onscious","11942":"wÃ¼rde","11943":"thon","11944":"OF","11945":"ìŀĲë","11946":"unda","11947":"æĺ¯","11948":"Ð¿Ð¾ÑĢ","11949":"employment","11950":"ÑĳÑĤ","11951":"ãģģ","11952":"steam","11953":"DI","11954":"professionals","11955":"engineers","11956":"Xia","11957":"ç«","11958":"ìĺģ","11959":"Dun","11960":"bitch","11961":"Ford","11962":"ä¸įè¦ģ","11963":"section","11964":"vice","11965":"Later","11966":"oston","11967":"ÑįÑĤ","11968":"×¦","11969":"Azure","11970":"pling","11971":"180","11972":"Creat","11973":"ISHA","11974":"bueno","11975":"íĿ¬","11976":"rup","11977":"lers","11978":"Yang","11979":"HA","11980":"bat","11981":"Catholic","11982":"accent","11983":"mixing","11984":"ckets","11985":"enhance","11986":"Ã¼hr","11987":"Ãªs","11988":"íĸ","11989":"swimming","11990":"cá»§a","11991":"Eliz","11992":"immune","11993":"Ð±Ð¾Ð»","11994":"fare","11995":"Gab","11996":"×¡","11997":"satell","11998":"Anything","11999":"asset","12000":"schedul","12001":"radical","12002":"zwei","12003":"ME","12004":"related","12005":"separated","12006":"Libr","12007":"grip","12008":"à®ª","12009":"è¨Ģ","12010":"beans","12011":"Op","12012":"ìĨĮ","12013":"pound","12014":"entrance","12015":"ÏĨ","12016":"Nie","12017":"Republicans","12018":"atom","12019":"personas","12020":"Ali","12021":"Ã¤hr","12022":"å¤ĸ","12023":"dramatic","12024":"Fine","12025":"reminds","12026":"èĻ","12027":"dÃ©jÃł","12028":"affordable","12029":"bran","12030":"iero","12031":"alar","12032":"cu","12033":"\\","12034":"moÅ¼e","12035":"blast","12036":"recy","12037":"fire","12038":"lle","12039":"Ð²ÑĢÐµÐ¼Ñı","12040":"WW","12041":"vs","12042":"Dude","12043":"Rome","12044":"greet","12045":"Het","12046":"cias","12047":"ëĭ¹","12048":"lessly","12049":"premium","12050":"experiments","12051":"atar","12052":"Ã©ri","12053":"officially","12054":"fee","12055":"à¹ĩ","12056":"ÑĩÐµÐ¼","12057":"rea","12058":"toy","12059":"OP","12060":"Taylor","12061":"McC","12062":"iley","12063":"Bak","12064":"alum","12065":"Unter","12066":"magical","12067":"trabal","12068":"votes","12069":"itage","12070":"mechanical","12071":"hn","12072":"ãģ¾ãģĹãģŁ","12073":"Ð¸Ð½ÑĤÐµÑĢ","12074":"ä»Ĭå¤©","12075":"hint","12076":"authorities","12077":"NASA","12078":"iversary","12079":"Ð¿Ð¾Ñĩ","12080":"rac","12081":"SPEAKER","12082":"Ã¶t","12083":"frames","12084":"goodbye","12085":"cher","12086":"hu","12087":"neur","12088":"å®ļ","12089":"Mach","12090":"Hell","12091":"festival","12092":"ëħĦ","12093":"uta","12094":"mushroom","12095":"tant","12096":"tatto","12097":"delete","12098":"diz","12099":"vÃ¤","12100":"sevent","12101":"Quick","12102":"baking","12103":"assembly","12104":"Go","12105":"Dream","12106":"Lad","12107":"éĿŀ","12108":"Ã¢y","12109":"ags","12110":"gravity","12111":"ì§ĳ","12112":"employ","12113":"dieses","12114":"discovery","12115":"ÑģÑĤÐ²Ð°","12116":"hebben","12117":"gerade","12118":"DR","12119":"''","12120":"technically","12121":"ÐŁÐ¾","12122":"privilege","12123":"Ever","12124":"Services","12125":"uran","12126":"consumption","12127":"Rev","12128":"Shall","12129":"asser","12130":"¶ĢíĦ°","12131":"racial","12132":"Youtube","12133":"Pra","12134":"ÑģÑĤÐ²ÐµÐ½","12135":"cek","12136":"æ´","12137":"asha","12138":"Ûģ","12139":"ĳľ","12140":"ahn","12141":"ICK","12142":"drinks","12143":"carb","12144":"ãĤ¿","12145":"64","12146":"Mmm","12147":"electrical","12148":"fruits","12149":"HD","12150":"Ã±a","12151":"Definitely","12152":"ë°Ľ","12153":"fais","12154":"rations","12155":"coe","12156":"ahu","12157":"Fair","12158":"eaten","12159":"fir","12160":"Au","12161":"ÑĥÐ½","12162":"ulating","12163":"ingly","12164":"vaccines","12165":"dragon","12166":"pointing","12167":"pelo","12168":"orters","12169":"workout","12170":"Ð¸Ð¼ÐµÑĢ","12171":"mond","12172":"Nope","12173":"×ĸ×Ķ","12174":"ÙĤ","12175":"adopted","12176":"bul","12177":"sans","12178":"possibilities","12179":"pend","12180":"zaman","12181":"hou","12182":"shares","12183":"calendar","12184":"persona","12185":"seal","12186":"gene","12187":"stored","12188":"Ð¿Ð¾Ð·","12189":"lyrics","12190":"instruments","12191":"MA","12192":"ĢìĿ´","12193":"clouds","12194":"hot","12195":"áº¯","12196":"ê°ĻìķĦìļĶ","12197":"Empire","12198":"bio","12199":"wind","12200":"iego","12201":"Europ","12202":"å¥½","12203":"edge","12204":"backwards","12205":"ì§Ģë","12206":"queen","12207":"shine","12208":"Ã§Ä±k","12209":"cad","12210":"Od","12211":"ìĤ¬ëŀĮ","12212":"bubble","12213":"Ã´i","12214":"zes","12215":"reactions","12216":"judgment","12217":"Democrats","12218":"cosas","12219":"ashed","12220":"Ð´Ð¾Ð»Ð¶","12221":"ÅĽnie","12222":"ê´","12223":"exemple","12224":"MP","12225":"á»¯","12226":"Vers","12227":"resil","12228":"mÃ¡","12229":"ÅĦst","12230":"believ","12231":"Vor","12232":"scheme","12233":"onda","12234":"podemos","12235":"charges","12236":"destination","12237":"Ky","12238":"SS","12239":"silence","12240":"embed","12241":"nat","12242":"á»Ľi","12243":"ANT","12244":"gged","12245":"reducing","12246":"ugly","12247":"mim","12248":"ÑĥÐ´Ð°","12249":"34","12250":"cord","12251":"ÑĤÐ¾Ð¶Ðµ","12252":"Lisa","12253":"Ã¶n","12254":"Christians","12255":"umbles","12256":"ologists","12257":"aza","12258":"tends","12259":"Cook","12260":"gesagt","12261":"íķĺëĤĺ","12262":"Tes","12263":"eremony","12264":"Ð½ÑĥÐ¶Ð½Ð¾","12265":"MARISHA","12266":"enroll","12267":"Cry","12268":"ESS","12269":"Sad","12270":"implemented","12271":"dÃŃa","12272":"Ãľ","12273":"pist","12274":"Dr","12275":"sabe","12276":"Soci","12277":"Ã¤re","12278":"ÐºÑĤÐ¾","12279":"Francisco","12280":"ìŀ¥","12281":"creatures","12282":"aws","12283":"earned","12284":"cheaper","12285":"dla","12286":"warn","12287":"sche","12288":"blah","12289":"nutr","12290":"è¼","12291":"gorgeous","12292":"Angeles","12293":"gemacht","12294":"homeless","12295":"ographic","12296":"Taiwan","12297":"Som","12298":"Had","12299":"actions","12300":"posts","12301":"outra","12302":"Mean","12303":"kar","12304":"cous","12305":"brack","12306":"Ð¸ÑĤÑĮÑģÑı","12307":"believes","12308":"suicide","12309":"equally","12310":"cares","12311":"Ð¾Ð¶Ð½Ð¾","12312":"stem","12313":"Much","12314":"producer","12315":"×ķ×Ĳ","12316":"protecting","12317":"TRAVIS","12318":"interviews","12319":"alien","12320":"Ask","12321":"sole","12322":"CO","12323":"Sud","12324":"surviv","12325":"sketch","12326":"wÅĤa","12327":"coloc","12328":"apologize","12329":"weight","12330":"55","12331":">","12332":"heroes","12333":"Boston","12334":"dependent","12335":"motivation","12336":"flix","12337":"seam","12338":"ÐºÐ¸Ðµ","12339":"drain","12340":"oded","12341":"guilty","12342":"Jenn","12343":"ingen","12344":"granted","12345":"Kelly","12346":"Sav","12347":"Uncle","12348":"Honestly","12349":"ELI","12350":"navigate","12351":"blessed","12352":"core","12353":"earning","12354":"signals","12355":"disk","12356":"ials","12357":"ages","12358":"æħ","12359":"particle","12360":"ÑĩÐµÑĢ","12361":"cann","12362":"tier","12363":"statements","12364":"ê³łìļĶ","12365":"ëķĮë¬¸ìĹĲ","12366":"Cho","12367":"polar","12368":"anÃ§","12369":"Kenn","12370":"Ni","12371":"Fight","12372":"organ","12373":"éķ","12374":"Cha","12375":"SÃŃ","12376":"ãĥª","12377":"slic","12378":"certific","12379":"template","12380":"Federal","12381":"consideration","12382":"explo","12383":"Main","12384":"NE","12385":"alongside","12386":"dressed","12387":"Point","12388":"environments","12389":"prÃ³xim","12390":"daar","12391":"prompt","12392":"pursue","12393":"entertainment","12394":"throat","12395":"problema","12396":"mart","12397":"ì¼","12398":"provider","12399":"ØĮ","12400":"×Ĺ","12401":"inte","12402":"making","12403":"stroke","12404":"tissue","12405":"Un","12406":"precious","12407":"Arts","12408":"inking","12409":"ÐŀÐ½","12410":"Ð¸Ñģ","12411":"nah","12412":"ÐķÑģÐ»Ð¸","12413":"corners","12414":"tricky","12415":"inch","12416":"lijk","12417":"pressing","12418":"level","12419":"ANG","12420":"radiation","12421":"ìĦł","12422":"confront","12423":"vet","12424":"representative","12425":"propag","12426":"crap","12427":"Dec","12428":"ramp","12429":"ÐµÐ¿ÐµÑĢÑĮ","12430":"uÃ©s","12431":"essen","12432":"cription","12433":"bills","12434":"Matthew","12435":"anime","12436":"áº¥t","12437":"lowest","12438":"has","12439":"screen","12440":"ograp","12441":"Ð°Ð»Ð¾","12442":"inton","12443":"Jah","12444":"èĢħ","12445":"itÃł","12446":"kay","12447":"rotation","12448":"Were","12449":"abei","12450":"trials","12451":"lever","12452":"ighty","12453":"spoon","12454":"hunt","12455":"cling","12456":"dism","12457":"Ð±Ð¾Ð»ÑĮÑĪ","12458":"assault","12459":"íĺķ","12460":"weekly","12461":"mismo","12462":"genetic","12463":"ulpt","12464":"Student","12465":"realistic","12466":"authentic","12467":"æīĵ","12468":"asta","12469":"arrested","12470":"guidelines","12471":"×ľ×Ĳ","12472":"Ð´Ð°Ð²","12473":"Coming","12474":"fÃ¼r","12475":"requests","12476":"ĥĲ","12477":"analyze","12478":"interess","12479":"halt","12480":"Oper","12481":"onom","12482":"duck","12483":"withd","12484":"ser","12485":"ÏĮ","12486":"History","12487":"youtube","12488":"ãĤį","12489":"saber","12490":"walk","12491":"font","12492":"overview","12493":"39","12494":"Ã¼y","12495":"etti","12496":"frozen","12497":"flesh","12498":"ÄŁi","12499":"PM","12500":"ìĻĢ","12501":"é¢","12502":"ÑĨÐ¸Ð¸","12503":"ê¸°ë","12504":"íģ¬","12505":"prose","12506":"oooo","12507":"rates","12508":"WS","12509":"automatic","12510":"collecting","12511":"Åĳ","12512":"neighbors","12513":"Â».","12514":"Expl","12515":"circul","12516":"cover","12517":"weg","12518":"sticks","12519":"eller","12520":"www","12521":"dorm","12522":"Exper","12523":"statistics","12524":"emails","12525":"grave","12526":"imiz","12527":"HS","12528":"uit","12529":",'","12530":"laser","12531":"èī","12532":"ÑĤÐµÐ¼","12533":"ÑĭÑĪ","12534":"ÑīÑĳ","12535":"genau","12536":"tienen","12537":"meditation","12538":"Organ","12539":"estimate","12540":"ë¬´ì","12541":"lets","12542":"nÃły","12543":"mindset","12544":"reson","12545":"mÃ©s","12546":"numerous","12547":"vielleicht","12548":"Third","12549":"uous","12550":"Dead","12551":"Ð°Ð½Ð´","12552":"HN","12553":"racing","12554":"agents","12555":"Ut","12556":"tear","12557":"HP","12558":"chemistry","12559":"survival","12560":"æĸ°","12561":"convinced","12562":";","12563":"regulations","12564":"ES","12565":"åĴĮ","12566":"300","12567":"ense","12568":"ìµ","12569":"dict","12570":"GA","12571":"ahÃŃ","12572":"åĭķ","12573":"tej","12574":"Ð¾ÑģÑĤ","12575":"Elect","12576":"intellectual","12577":"bias","12578":"burden","12579":"çĤ¹","12580":"ìĸ´ëĸ»","12581":"cheer","12582":"soph","12583":"portfolio","12584":"uba","12585":"estos","12586":"TV","12587":"For","12588":"ash","12589":"kommer","12590":"collective","12591":"wrest","12592":"Jetzt","12593":"Wat","12594":"reich","12595":"primer","12596":"active","12597":"mie","12598":"icked","12599":"hunting","12600":"testim","12601":"compassion","12602":"Ø±","12603":"brut","12604":"salad","12605":"Ð¾Ð±ÑīÐµ","12606":"solving","12607":"floating","12608":"ç·","12609":"attractive","12610":"ÙĪÙĦ","12611":"perd","12612":"iffer","12613":"sculpt","12614":"hhh","12615":"Week","12616":"enthus","12617":"nad","12618":"merch","12619":"íĻķ","12620":"mile","12621":"å¥½äºĨ","12622":"Î¸","12623":"ëĤĺë","12624":"éĩį","12625":"38","12626":"chains","12627":"Almost","12628":"tickets","12629":"rin","12630":"CC","12631":"distributed","12632":"abetes","12633":"temperatures","12634":"gained","12635":"flexibility","12636":"screaming","12637":"abroad","12638":"uno","12639":"entrepreneurs","12640":"Network","12641":"Canadian","12642":"prev","12643":"sÃ¶","12644":"ÑĤÐµÐ±Ñı","12645":"Poke","12646":"Pod","12647":"Turkey","12648":"çı¾åľ¨","12649":"abstract","12650":"snake","12651":"Amy","12652":"ëĬĲëĤĮ","12653":"brave","12654":"ìŀĪìĸ´ìļĶ","12655":"Kal","12656":"2007","12657":"Ã¡rio","12658":"marked","12659":"gines","12660":"alloc","12661":"ONG","12662":"scientist","12663":"esca","12664":"racism","12665":"×ĳ×","12666":"Sams","12667":"Penn","12668":"loads","12669":"à®¨","12670":"Ã¼ber","12671":"Me","12672":"ixÃ²","12673":"perÃ²","12674":"anne","12675":"expressed","12676":"Ð¼ÐµÑĢ","12677":"moet","12678":"returning","12679":"nia","12680":"expon","12681":"Pro","12682":"loyal","12683":"ML","12684":"lamp","12685":"shy","12686":"composition","12687":"Ly","12688":"magnetic","12689":"premier","12690":"measured","12691":"summary","12692":"attacked","12693":"finishing","12694":"ÐĹ","12695":"ç¥","12696":"sits","12697":"hydrogen","12698":"mai","12699":"Deutsch","12700":"asÄ±","12701":"obtain","12702":"vie","12703":"soit","12704":"ë°Ķ","12705":"lane","12706":"consegu","12707":"Ð²Ð¾","12708":"ease","12709":"akin","12710":"Fa","12711":"untuk","12712":"burst","12713":"cum","12714":"alÄ±m","12715":"Ãºblic","12716":"idi","12717":"Royal","12718":"Kon","12719":"commonly","12720":"removing","12721":"jur","12722":"ilib","12723":"anch","12724":"íĸī","12725":"Æ°á»£","12726":"ÐľÑĭ","12727":"Anth","12728":"SÃ¥","12729":"interrupt","12730":"stere","12731":"OS","12732":"onym","12733":"tery","12734":"Maria","12735":"ê²ĥ","12736":"exploring","12737":"transparent","12738":"fate","12739":"Jung","12740":"grup","12741":"darker","12742":"Doug","12743":"mane","12744":"æĶ¾","12745":"áº¡i","12746":"dri","12747":"look","12748":"Design","12749":"tutaj","12750":"horizontal","12751":"reon","12752":"orte","12753":"Correct","12754":"Steven","12755":"vine","12756":"02","12757":"iÄĩ","12758":"siempre","12759":"Key","12760":"åĥı","12761":"Games","12762":"naar","12763":"shocked","12764":"elve","12765":"Rose","12766":"ìĭ¬","12767":"stopping","12768":"ohl","12769":"Mix","12770":"suffered","12771":"sigma","12772":"weakness","12773":"Ow","12774":"à¸µà¹Ī","12775":"IF","12776":"à®ħ","12777":"aded","12778":"Netflix","12779":"anes","12780":"remained","12781":"iry","12782":"rip","12783":"ellt","12784":"silent","12785":"proven","12786":"toxic","12787":"alumin","12788":"multipl","12789":"aland","12790":"34","12791":"06","12792":"Bru","12793":"ìłķë§Ĳ","12794":"Just","12795":"boy","12796":"shoe","12797":"creature","12798":"headed","12799":"Ð¾ÑĤÐº","12800":"æ±","12801":"essence","12802":"remarkable","12803":"nÃºmer","12804":"drew","12805":"puzzle","12806":"Library","12807":"Fu","12808":"ashes","12809":"kk","12810":"Ist","12811":"¦°","12812":"Bry","12813":"ceremony","12814":"à®İ","12815":"cri","12816":"equ","12817":"ãĤ¢","12818":"prize","12819":"dimensions","12820":"ogram","12821":"leather","12822":"populations","12823":"uum","12824":"vegan","12825":"ÑıÐ´","12826":"cÃ³mo","12827":"åĦ","12828":"strip","12829":"å£","12830":"vacation","12831":"ħķ","12832":"meals","12833":"ilipp","12834":"ents","12835":"aram","12836":"richt","12837":"grain","12838":"Spain","12839":"cheek","12840":"Aff","12841":"ION","12842":"Bring","12843":"38","12844":"ielen","12845":"ulu","12846":"Ð±Ð¾Ð»ÑĮÑĪÐµ","12847":"announcement","12848":"ÑĤÑĥÑĤ","12849":"Prophet","12850":"ardo","12851":"37","12852":"woke","12853":"translation","12854":"NOT","12855":"CL","12856":"dÃ¼ÅŁ","12857":"ÑĨÑĸ","12858":"acer","12859":"Loc","12860":"perception","12861":"NO","12862":"diesen","12863":"Look","12864":"heart","12865":"aved","12866":"boundary","12867":"flows","12868":"ÑĳÐ¼","12869":"arguments","12870":"elections","12871":"Ä±s","12872":"heck","12873":"suitable","12874":"fiber","12875":"Stra","12876":"xy","12877":"Hum","12878":"monthly","12879":"uper","12880":"golf","12881":"lately","12882":"Gard","12883":"Ren","12884":"Ast","12885":"Fant","12886":"Ð°ÑģÑģ","12887":"obser","12888":"ë¡ľ","12889":"easiest","12890":"įĶë","12891":"websites","12892":"pol","12893":"cocon","12894":"à®ĩ","12895":"Veg","12896":"walks","12897":"intro","12898":"directed","12899":"Anna","12900":"ëĵ¤ìĸ´","12901":"Eastern","12902":"Saint","12903":"Bow","12904":"roast","12905":"URL","12906":"jeden","12907":"uras","12908":"aja","12909":"semi","12910":"rapidly","12911":"targets","12912":"Control","12913":"bah","12914":"reflection","12915":"creativity","12916":"holders","12917":"ìĺ¬ë","12918":"amongst","12919":"feeding","12920":"ÑįÑĤÐ¾Ð¼Ñĥ","12921":"Ð²Ð¸Ð´Ðµ","12922":"ë§Įëĵ¤","12923":"Smart","12924":"reliable","12925":"vezes","12926":"×¨","12927":"chuckles","12928":"azione","12929":"Williams","12930":"aÃ§","12931":"slee","12932":"ÐµÑī","12933":"timeline","12934":"thorough","12935":"á»į","12936":"Ot","12937":"áº¡n","12938":"imagination","12939":"mechanics","12940":"rist","12941":"claimed","12942":"ÏĦÎ·","12943":"Ãªte","12944":"Hurry","12945":"iPad","12946":"constru","12947":"Cla","12948":"Als","12949":"ä¼ļ","12950":"utz","12951":"cultures","12952":"ìĸ´ëĸ»ê²Į","12953":"belongs","12954":"yer","12955":"Doesn","12956":"geomet","12957":"bid","12958":"foam","12959":"hob","12960":"Britain","12961":"substance","12962":"anniversary","12963":"ëĦĪ","12964":"noted","12965":"governor","12966":"stocks","12967":"31","12968":"diye","12969":"ìĬ¤ë","12970":"reb","12971":"zel","12972":"multiply","12973":"operator","12974":"Ħ¤ìļĶ","12975":"waters","12976":"dÃ¤r","12977":"unser","12978":"Elizabeth","12979":"é«ĺ","12980":"increasingly","12981":"Gro","12982":"engines","12983":"irs","12984":"Ø«","12985":"treasure","12986":"PC","12987":"inction","12988":"iri","12989":"accum","12990":"variation","12991":"pom","12992":"titles","12993":"Fest","12994":"Ã³s","12995":"elder","12996":"nym","12997":"run","12998":"ÑıÐ²","12999":"innovative","13000":"nombre","13001":"coinc","13002":"franch","13003":"entonces","13004":"nichts","13005":"exclusive","13006":"Cheers","13007":"Bi","13008":"uje","13009":"æŃ¡","13010":"pok","13011":"Prem","13012":"rocket","13013":"ELIPE","13014":"hospitals","13015":"rium","13016":"juste","13017":"hammer","13018":"quantum","13019":"responses","13020":"lly","13021":"endi","13022":"actively","13023":"fridge","13024":"iate","13025":"long","13026":"quem","13027":"deaths","13028":"superior","13029":"cken","13030":"ìĿ´ìĹĲ","13031":"ktop","13032":"gathered","13033":"£¨","13034":"dazu","13035":"recipes","13036":"buzz","13037":"cen","13038":"anytime","13039":"onsense","13040":"circles","13041":"solved","13042":"ìĭł","13043":"coronavirus","13044":"Luke","13045":"bubb","13046":"contempor","13047":"rzy","13048":"Jane","13049":"Ð´Ð¾Ð¼","13050":"screws","13051":"hybrid","13052":"casual","13053":"selbst","13054":"being","13055":"ÄĲ","13056":"Columb","13057":"ÑħÐ¾Ñĩ","13058":"bucket","13059":"evaluate","13060":"idol","13061":"reputation","13062":"ìĨĮë","13063":"ÙĪØ±","13064":"hecho","13065":"poem","13066":"subjects","13067":"plant","13068":"Beh","13069":"Speaking","13070":"batteries","13071":"followers","13072":"Ã¶l","13073":"gently","13074":"sixt","13075":"parameter","13076":"ikke","13077":"Tour","13078":"DJ","13079":"otte","13080":"Jahren","13081":"preparation","13082":"Ð´ÑĥÐ¼","13083":"800","13084":"cop","13085":"iking","13086":"ë¬¸","13087":"Ð½Ñĥ","13088":"Ð»ÐµÑĤ","13089":"åĲĮ","13090":"Ide","13091":"ì¡°ê¸Ī","13092":"laughter","13093":"molecules","13094":"Rest","13095":"observed","13096":"dzie","13097":"advertising","13098":"erto","13099":"moins","13100":"MIT","13101":"excit","13102":"tum","13103":"tyl","13104":"invested","13105":"pharm","13106":"unexpected","13107":"phi","13108":"otype","13109":"weise","13110":"geÃ§","13111":"jourd","13112":"horses","13113":"nÄħ","13114":"=\"","13115":"SM","13116":"fib","13117":"clips","13118":"çķ¶","13119":"å¦Ĥæŀľ","13120":"regime","13121":"rotate","13122":"rou","13123":"nik","13124":"armor","13125":"ðŁĺ","13126":"ÐµÑĢÐ°","13127":"åº¦","13128":"Och","13129":"richtig","13130":"Ã¼zel","13131":"aneously","13132":"mek","13133":"éĮ¯","13134":"Xiao","13135":"existed","13136":"worth","13137":"ãģ£ãģ¨","13138":"naught","13139":"heiÃŁt","13140":"Bal","13141":"resid","13142":"ivot","13143":"omatic","13144":"hired","13145":"gradually","13146":"onions","13147":"compat","13148":"intim","13149":"jew","13150":"contribution","13151":"Ire","13152":"acji","13153":"slice","13154":"immun","13155":"Rus","13156":"grows","13157":"Similarly","13158":"hardest","13159":"struck","13160":"measurement","13161":"...]","13162":"they","13163":"ìłĢë","13164":"sneak","13165":"applies","13166":"Ð½ÐµÐ¼","13167":"æĵ","13168":"×ĳ×¨","13169":"Ð§ÑĤÐ¾","13170":"outro","13171":"innocent","13172":"mog","13173":"Samsung","13174":"mercy","13175":"handling","13176":"intervention","13177":"idays","13178":"got","13179":"curric","13180":"boundaries","13181":"confusing","13182":"Ŀ¼ëĬĶ","13183":"æĩ","13184":"stitches","13185":"ÃŃvel","13186":"tunnel","13187":"itÃ¤","13188":"gost","13189":"imy","13190":"czas","13191":"mÃ©","13192":"catal","13193":"Simon","13194":"LIAM","13195":"mic","13196":"Ð¤","13197":"eyel","13198":"isas","13199":"CPU","13200":"Dou","13201":"nÃ¤ch","13202":"infinity","13203":"rif","13204":"Peace","13205":"Cu","13206":"minimal","13207":"listened","13208":"pole","13209":"halb","13210":"loaded","13211":"steady","13212":"Besides","13213":"Ãªm","13214":"lap","13215":"coop","13216":"friendship","13217":"world","13218":"geh","13219":"tylko","13220":"Laura","13221":"surrounded","13222":"Event","13223":"chap","13224":"Wonder","13225":"break","13226":"drove","13227":"broader","13228":"chi","13229":"Fi","13230":"gehen","13231":"western","13232":"intelligent","13233":"persist","13234":"founded","13235":"ãģĵãģ¨","13236":"historic","13237":"frÃ¥","13238":"cksÃ¥","13239":"handy","13240":"symp","13241":"rows","13242":"nutri","13243":"bur","13244":"Leon","13245":"sistema","13246":"extensive","13247":"ÑĥÐ²","13248":"íı","13249":"nights","13250":"cÃ¡c","13251":"counting","13252":"Must","13253":"allow","13254":"ÐµÑģÑģ","13255":"Mom","13256":"Ð½Ð°Ð´Ð¾","13257":"barrel","13258":"ãĥŀ","13259":"ARD","13260":"installation","13261":"insect","13262":"ëħ¸ë","13263":"ujÄħ","13264":"Äĳi","13265":"packed","13266":"fiction","13267":"Now","13268":"Yay","13269":"pert","13270":"rons","13271":"unde","13272":"aches","13273":"styles","13274":"aprÃ¨s","13275":"oku","13276":"Vice","13277":"Ä±nÄ±z","13278":"comm","13279":"assigned","13280":"interactions","13281":"acab","13282":"FELIPE","13283":"rescue","13284":"industries","13285":"Andy","13286":"praise","13287":"flame","13288":"snack","13289":"íĤ","13290":"çģ","13291":"swo","13292":"render","13293":"boards","13294":"ÑĤÐ¾Ð¼","13295":"enne","13296":"pasta","13297":"devil","13298":"Fel","13299":"hatte","13300":"colleg","13301":"eh","13302":"ì»","13303":"ãģĵãģ®","13304":"productive","13305":"forward","13306":"Ð¸Ð¿","13307":"smartphone","13308":"invis","13309":"bum","13310":"whoa","13311":"ìŀĦ","13312":"ocksÃ¥","13313":"Lang","13314":"Syria","13315":"sesi","13316":"Î¯Î±","13317":"approval","13318":"48","13319":"Ð¾Ð´Ð¸Ð½","13320":"ëĸ","13321":"Harr","13322":"Administ","13323":"×¤","13324":"Dean","13325":"fi","13326":"citizen","13327":"shark","13328":"05","13329":"boil","13330":"indicate","13331":"å¡","13332":"Are","13333":"layout","13334":"refr","13335":"Pacific","13336":"AAAA","13337":"Australian","13338":"gression","13339":"Voice","13340":"Ð°Ð»ÑģÑı","13341":"shelter","13342":"To","13343":"aupt","13344":"evaluation","13345":"apor","13346":"currency","13347":"Ð¼Ð½Ð¾Ð³Ð¾","13348":"igos","13349":"ãģ°","13350":"oct","13351":"royal","13352":"è³","13353":"asil","13354":"Children","13355":"rien","13356":"ëĵľë","13357":"barrier","13358":"ejemplo","13359":"ek","13360":"ND","13361":"esp","13362":"ÐµÐ½Ð°","13363":"pic","13364":"killer","13365":"integrate","13366":"fewer","13367":"disabilities","13368":"....","13369":"triangle","13370":"fees","13371":"widely","13372":"emi","13373":"overwhelming","13374":"zomb","13375":"bere","13376":"hood","13377":"Aye","13378":"Harvard","13379":"ev","13380":"ÏĦÎ¿Ïħ","13381":"cups","13382":"Auch","13383":"zona","13384":"1990","13385":"weiÃŁ","13386":"crunch","13387":"æ¥","13388":"Ð·Ð°Ð²","13389":"measuring","13390":"stations","13391":"Stephen","13392":"shortly","13393":"signing","13394":"comedy","13395":"omo","13396":"suggestions","13397":"signature","13398":"Ð¿ÑĢÐ¸Ð²","13399":"disorder","13400":"aska","13401":"worlds","13402":"precisely","13403":"norm","13404":"rav","13405":"Civil","13406":"Inter","13407":"Certain","13408":"injured","13409":"suggests","13410":"Golden","13411":"cyber","13412":"Ø´","13413":"temporary","13414":"cooper","13415":"voted","13416":"ought","13417":"áº¥y","13418":"xual","13419":"panels","13420":"95","13421":"handsome","13422":"Ð¿ÑĢÐ¾Ð²","13423":"permit","13424":"kein","13425":"badly","13426":"notifications","13427":"iza","13428":"Notice","13429":"inclusive","13430":"answering","13431":"íĹ","13432":"uld","13433":"íħĮ","13434":"nowadays","13435":"37","13436":"bolt","13437":"static","13438":"Hop","13439":"avant","13440":"ajo","13441":"ë§ĽìŀĪ","13442":"fifty","13443":"Final","13444":"scores","13445":"Tap","13446":"cyl","13447":"convince","13448":"anyways","13449":"oda","13450":"ìķ¼","13451":"serves","13452":"ÑĤÐ°ÐºÐ¾Ð¹","13453":"Zoom","13454":"savings","13455":"ulo","13456":"southern","13457":"viewer","13458":"hoje","13459":"seja","13460":"representing","13461":"Īëįĺ","13462":"lik","13463":"Somebody","13464":"beast","13465":"sticking","13466":"insist","13467":"talented","13468":"explaining","13469":"attorney","13470":"éĥ¨","13471":"stairs","13472":"Dog","13473":"íĭ","13474":"cig","13475":"shaped","13476":"sons","13477":"ÏģÎ¹","13478":"utt","13479":"ìĶ","13480":"parad","13481":"ìĿ¸ëį°","13482":"horn","13483":"Jour","13484":"anno","13485":"worldwide","13486":"åĬĽ","13487":"participation","13488":"¦Ħ","13489":"mÃ³w","13490":"burned","13491":"writers","13492":"allah","13493":"Fund","13494":"clever","13495":"Leute","13496":"bin","13497":"beating","13498":"foot","13499":"ìĽĲ","13500":"Studio","13501":"vag","13502":"bey","13503":"rze","13504":"opposition","13505":"Ð¶Ð¸Ð·","13506":"who","13507":"ê±´","13508":"trace","13509":"Ð´ÐµÐ½ÑĮ","13510":"epid","13511":"gesch","13512":"Nar","13513":"BE","13514":"ÑĥÐ¹","13515":"Sign","13516":"edly","13517":"clay","13518":"instantly","13519":"gathering","13520":"Galaxy","13521":"bored","13522":"Buddh","13523":"cÃ©","13524":"mam","13525":"slope","13526":"ëĭ¤ìĿĮ","13527":"schÃ¶n","13528":"pir","13529":"gef","13530":"amer","13531":"hÃ¶","13532":"colleague","13533":"presents","13534":"adium","13535":"à®µ","13536":"falar","13537":"beep","13538":"dried","13539":"isms","13540":"rope","13541":"workshop","13542":"estud","13543":"bands","13544":"themes","13545":"åħ¬","13546":"ÙĬØ±","13547":"åĲİ","13548":"reminder","13549":"ÑĤÑĥ","13550":"Bh","13551":"coconut","13552":"ÑģÑĤÐ¾","13553":"Channel","13554":"immigration","13555":"Ã¤s","13556":".....","13557":"ä¸»","13558":"çĻ½","13559":"stop","13560":"ÐºÐ°ÑĢ","13561":"coins","13562":"ÑĩÐ°Ñģ","13563":"destruction","13564":"lined","13565":"barriers","13566":"antine","13567":"printed","13568":"congratulations","13569":"Heart","13570":"inqu","13571":"tha","13572":"hardly","13573":"Aven","13574":"tinha","13575":"Sony","13576":"NF","13577":"graduates","13578":"squeeze","13579":"eremy","13580":"ÏĦÎ¹","13581":"epic","13582":"Ju","13583":"olm","13584":"Laughter","13585":"beliefs","13586":"Cru","13587":"True","13588":"Soul",
[...]
